{
  "\u0000": 0,
  "\u0001": 1,
  "\u0002": 2,
  "\u0003": 3,
  "\u0004": 4,
  "\u0005": 5,
  "\u0006": 6,
  "\u0007": 7,
  "\b": 8,
  "\t": 9,
  "\n": 10,
  "\u000b": 11,
  "\f": 12,
  "\r": 13,
  "\u000e": 14,
  "\u000f": 15,
  "\u0010": 16,
  "\u0011": 17,
  "\u0012": 18,
  "\u0013": 19,
  "\u0014": 20,
  "\u0015": 21,
  "\u0016": 22,
  "\u0017": 23,
  "\u0018": 24,
  "\u0019": 25,
  "\u001a": 26,
  "\u001b": 27,
  "\u001c": 28,
  "\u001d": 29,
  "\u001e": 30,
  "\u001f": 31,
  " ": 32,
  "!": 33,
  "\"": 34,
  "#": 35,
  "$": 36,
  "%": 37,
  "&": 38,
  "'": 39,
  "(": 40,
  ")": 41,
  "*": 42,
  "+": 43,
  ",": 44,
  "-": 45,
  ".": 46,
  "/": 47,
  "0": 48,
  "1": 49,
  "2": 50,
  "3": 51,
  "4": 52,
  "5": 53,
  "6": 54,
  "7": 55,
  "8": 56,
  "9": 57,
  ":": 58,
  ";": 59,
  "<": 60,
  "=": 61,
  ">": 62,
  "?": 63,
  "@": 64,
  "A": 65,
  "B": 66,
  "C": 67,
  "D": 68,
  "E": 69,
  "F": 70,
  "G": 71,
  "H": 72,
  "I": 73,
  "J": 74,
  "K": 75,
  "L": 76,
  "M": 77,
  "N": 78,
  "O": 79,
  "P": 80,
  "Q": 81,
  "R": 82,
  "S": 83,
  "T": 84,
  "U": 85,
  "V": 86,
  "W": 87,
  "X": 88,
  "Y": 89,
  "Z": 90,
  "[": 91,
  "\\": 92,
  "]": 93,
  "^": 94,
  "_": 95,
  "`": 96,
  "a": 97,
  "b": 98,
  "c": 99,
  "d": 100,
  "e": 101,
  "f": 102,
  "g": 103,
  "h": 104,
  "i": 105,
  "j": 106,
  "k": 107,
  "l": 108,
  "m": 109,
  "n": 110,
  "o": 111,
  "p": 112,
  "q": 113,
  "r": 114,
  "s": 115,
  "t": 116,
  "u": 117,
  "v": 118,
  "w": 119,
  "x": 120,
  "y": 121,
  "z": 122,
  "{": 123,
  "|": 124,
  "}": 125,
  "~": 126,
  "": 127,
  "": 128,
  "": 129,
  "": 130,
  "": 131,
  "": 132,
  "": 133,
  "": 134,
  "": 135,
  "": 136,
  "": 137,
  "": 138,
  "": 139,
  "": 140,
  "": 141,
  "": 142,
  "": 143,
  "": 144,
  "": 145,
  "": 146,
  "": 147,
  "": 148,
  "": 149,
  "": 150,
  "": 151,
  "": 152,
  "": 153,
  "": 154,
  "": 155,
  "": 156,
  "": 157,
  "": 158,
  "": 159,
  " ": 160,
  "¡": 161,
  "¢": 162,
  "£": 163,
  "¤": 164,
  "¥": 165,
  "¦": 166,
  "§": 167,
  "¨": 168,
  "©": 169,
  "ª": 170,
  "«": 171,
  "¬": 172,
  "­": 173,
  "®": 174,
  "¯": 175,
  "°": 176,
  "±": 177,
  "²": 178,
  "³": 179,
  "´": 180,
  "µ": 181,
  "¶": 182,
  "·": 183,
  "¸": 184,
  "¹": 185,
  "º": 186,
  "»": 187,
  "¼": 188,
  "½": 189,
  "¾": 190,
  "¿": 191,
  "À": 192,
  "Á": 193,
  "Â": 194,
  "Ã": 195,
  "Ä": 196,
  "Å": 197,
  "Æ": 198,
  "Ç": 199,
  "È": 200,
  "É": 201,
  "Ê": 202,
  "Ë": 203,
  "Ì": 204,
  "Í": 205,
  "Î": 206,
  "Ï": 207,
  "Ð": 208,
  "Ñ": 209,
  "Ò": 210,
  "Ó": 211,
  "Ô": 212,
  "Õ": 213,
  "Ö": 214,
  "×": 215,
  "Ø": 216,
  "Ù": 217,
  "Ú": 218,
  "Û": 219,
  "Ü": 220,
  "Ý": 221,
  "Þ": 222,
  "ß": 223,
  "à": 224,
  "á": 225,
  "â": 226,
  "ã": 227,
  "ä": 228,
  "å": 229,
  "æ": 230,
  "ç": 231,
  "è": 232,
  "é": 233,
  "ê": 234,
  "ë": 235,
  "ì": 236,
  "í": 237,
  "î": 238,
  "ï": 239,
  "ð": 240,
  "ñ": 241,
  "ò": 242,
  "ó": 243,
  "ô": 244,
  "õ": 245,
  "ö": 246,
  "÷": 247,
  "ø": 248,
  "ù": 249,
  "ú": 250,
  "û": 251,
  "ü": 252,
  "ý": 253,
  "þ": 254,
  "ÿ": 255,
  " t": 256,
  " th": 257,
  " the": 258,
  " they": 259,
  " theyd": 260,
  " a": 261,
  " an": 262,
  " and": 263,
  "he": 264,
  "The": 265,
  " The": 266,
  " They": 267,
  " s": 268,
  " sa": 269,
  " sai": 270,
  " said": 271,
  " w": 272,
  " wa": 273,
  " was": 274,
  " wash": 275,
  " washi": 276,
  " washin": 277,
  " washing": 278,
  "ed": 279,
  " l": 280,
  " li": 281,
  " lit": 282,
  " litt": 283,
  " littl": 284,
  " little": 285,
  " littles": 286,
  " littlest": 287,
  " b": 288,
  " bi": 289,
  " big": 290,
  " bigg": 291,
  " bigge": 292,
  " bigger": 293,
  " to": 294,
  " too": 295,
  " took": 296,
  "in": 297,
  "ing": 298,
  "hing": 299,
  "thing": 300,
  "om": 301,
  "ome": 302,
  " some": 303,
  " something": 304,
  " h": 305,
  " ha": 306,
  " hap": 307,
  " happ": 308,
  " happy": 309,
  " happyt": 310,
  " happyth": 311,
  " happytha": 312,
  " happythat": 313,
  " f": 314,
  " fo": 315,
  " for": 316,
  " fore": 317,
  " fores": 318,
  " forest": 319,
  " forests": 320,
  "re": 321,
  "ere": 322,
  " were": 323,
  " weren": 324,
  "ou": 325,
  "you": 326,
  " you": 327,
  " your": 328,
  " yours": 329,
  " yourse": 330,
  " yoursel": 331,
  " yourself": 332,
  "en": 333,
  "end": 334,
  "ri": 335,
  " fri": 336,
  " friend": 337,
  " friends": 338,
  " friendsh": 339,
  " friendshi": 340,
  " friendship": 341,
  " friendships": 342,
  " d": 343,
  " da": 344,
  " day": 345,
  " days": 346,
  " c": 347,
  " ca": 348,
  " cat": 349,
  " catc": 350,
  " catch": 351,
  " p": 352,
  " pl": 353,
  " pla": 354,
  " play": 355,
  " played": 356,
  "it": 357,
  " it": 358,
  " its": 359,
  " itse": 360,
  " itsel": 361,
  " itself": 362,
  " m": 363,
  " ma": 364,
  " man": 365,
  " many": 366,
  "er": 367,
  "ver": 368,
  "very": 369,
  " very": 370,
  " he": 371,
  " her": 372,
  " hers": 373,
  " herse": 374,
  " hersel": 375,
  " herself": 376,
  "on": 377,
  " on": 378,
  " one": 379,
  " ones": 380,
  " onese": 381,
  " onesel": 382,
  " oneself": 383,
  " n": 384,
  " no": 385,
  " not": 386,
  " noti": 387,
  " notic": 388,
  " noticed": 389,
  "im": 390,
  "Tim": 391,
  " Tim": 392,
  " Timm": 393,
  " Timmy": 394,
  "ll": 395,
  "all": 396,
  " ball": 397,
  " ballo": 398,
  " balloon": 399,
  " balloons": 400,
  "is": 401,
  " his": 402,
  " hist": 403,
  " histo": 404,
  " histor": 405,
  " history": 406,
  " g": 407,
  " go": 408,
  " goo": 409,
  " good": 410,
  " goodb": 411,
  " goodby": 412,
  " goodbye": 413,
  " goodbyes": 414,
  " S": 415,
  " She": 416,
  " Shell": 417,
  " Shelly": 418,
  "ar": 419,
  "ear": 420,
  "earn": 421,
  " learn": 422,
  " learned": 423,
  "at": 424,
  " that": 425,
  " thatJ": 426,
  " thatJer": 427,
  " thatJerr": 428,
  " thatJerry": 429,
  "of": 430,
  "oft": 431,
  "ofte": 432,
  "endofte": 433,
  "endoftex": 434,
  "endoftext": 435,
  " H": 436,
  " He": 437,
  " Hel": 438,
  " Help": 439,
  " Helping": 440,
  "il": 441,
  "ily": 442,
  "Lily": 443,
  " Lily": 444,
  "un": 445,
  " fun": 446,
  " funn": 447,
  " funny": 448,
  " in": 449,
  " int": 450,
  " into": 451,
  "am": 452,
  " nam": 453,
  " named": 454,
  "et": 455,
  "get": 456,
  "gethe": 457,
  "gether": 458,
  " together": 459,
  " \"": 460,
  " \".": 461,
  "es": 462,
  "est": 463,
  " best": 464,
  " besti": 465,
  " bestie": 466,
  "an": 467,
  "ran": 468,
  " ran": 469,
  " ranc": 470,
  " ranch": 471,
  "ow": 472,
  "own": 473,
  " down": 474,
  " downs": 475,
  " downst": 476,
  " downsta": 477,
  " downstai": 478,
  " downstair": 479,
  " downstairs": 480,
  "ut": 481,
  " but": 482,
  " butt": 483,
  " butter": 484,
  " butterf": 485,
  " butterfl": 486,
  " butterfly": 487,
  "ith": 488,
  " with": 489,
  " withou": 490,
  " without": 491,
  "On": 492,
  "One": 493,
  " One": 494,
  "id": 495,
  "ide": 496,
  "side": 497,
  " ou": 498,
  " out": 499,
  " outside": 500,
  "ked": 501,
  "oked": 502,
  "ooked": 503,
  " looked": 504,
  "ir": 505,
  " their": 506,
  " theirs": 507,
  "ot": 508,
  "othe": 509,
  "other": 510,
  " other": 511,
  " others": 512,
  "ld": 513,
  "ould": 514,
  " could": 515,
  " couldn": 516,
  " I": 517,
  " It": 518,
  " Its": 519,
  " st": 520,
  " star": 521,
  " start": 522,
  " started": 523,
  "ce": 524,
  "Once": 525,
  " Once": 526,
  "or": 527,
  " wor": 528,
  " work": 529,
  " working": 530,
  " be": 531,
  " bec": 532,
  " becam": 533,
  " became": 534,
  "ck": 535,
  "ack": 536,
  " back": 537,
  "ard": 538,
  " heard": 539,
  "ke": 540,
  " like": 541,
  " likel": 542,
  " likely": 543,
  " u": 544,
  " up": 545,
  " upon": 546,
  "nt": 547,
  " want": 548,
  " wanted": 549,
  " e": 550,
  " ex": 551,
  " exc": 552,
  " excit": 553,
  " excited": 554,
  " excitedl": 555,
  " excitedly": 556,
  " r": 557,
  " ro": 558,
  " room": 559,
  " rooms": 560,
  "le": 561,
  "ble": 562,
  "able": 563,
  " table": 564,
  " tablec": 565,
  " tablecl": 566,
  " tableclot": 567,
  " tablecloth": 568,
  "ve": 569,
  " have": 570,
  " had": 571,
  " hadn": 572,
  " of": 573,
  " off": 574,
  " offi": 575,
  " office": 576,
  "st": 577,
  "ast": 578,
  " fast": 579,
  " faster": 580,
  "<|": 581,
  "|>": 582,
  " do": 583,
  " dog": 584,
  " dogs": 585,
  " B": 586,
  " But": 587,
  " Butt": 588,
  " Butter": 589,
  " Butterf": 590,
  " Butterfl": 591,
  " Butterfly": 592,
  "se": 593,
  "ouse": 594,
  " house": 595,
  " housew": 596,
  " housewar": 597,
  " housewarm": 598,
  " housewarming": 599,
  "gh": 600,
  "ght": 601,
  "ought": 602,
  " thought": 603,
  " thoughtf": 604,
  " thoughtfu": 605,
  " thoughtful": 606,
  " thoughtfuln": 607,
  " thoughtfulnes": 608,
  " thoughtfulness": 609,
  " M": 610,
  " Ma": 611,
  " Max": 612,
  " T": 613,
  " Tom": 614,
  " Tomm": 615,
  " Tommy": 616,
  " saw": 617,
  " sawing": 618,
  "'s": 619,
  "ent": 620,
  " went": 621,
  " sh": 622,
  " sha": 623,
  " share": 624,
  " shares": 625,
  " bo": 626,
  " boy": 627,
  " boys": 628,
  " she": 629,
  " shell": 630,
  " shells": 631,
  " mom": 632,
  " momm": 633,
  " mommy": 634,
  " lo": 635,
  " lov": 636,
  " loved": 637,
  "ay": 638,
  "way": 639,
  " away": 640,
  "nd": 641,
  "ound": 642,
  "round": 643,
  " around": 644,
  "rd": 645,
  " bird": 646,
  " birds": 647,
  " tim": 648,
  " time": 649,
  " k": 650,
  " kn": 651,
  " kne": 652,
  " knew": 653,
  " so": 654,
  " soon": 655,
  " sooner": 656,
  ".\"": 657,
  "..": 658,
  "...\"": 659,
  "...\".": 660,
  " there": 661,
  " sm": 662,
  " smil": 663,
  " smiled": 664,
  "ch": 665,
  "ach": 666,
  " each": 667,
  " eachother": 668,
  "el": 669,
  "elt": 670,
  " felt": 671,
  "!\"": 672,
  "!\".": 673,
  "'!\".": 674,
  "op": 675,
  " op": 676,
  " open": 677,
  " opened": 678,
  "al": 679,
  "imal": 680,
  " animal": 681,
  " animals": 682,
  " ne": 683,
  " new": 684,
  " news": 685,
  " newsp": 686,
  " newspa": 687,
  " newspap": 688,
  " newspaper": 689,
  " newspapers": 690,
  " wh": 691,
  " what": 692,
  " whate": 693,
  " whatever": 694,
  " hel": 695,
  " help": 696,
  " helped": 697,
  " all": 698,
  " alli": 699,
  " allig": 700,
  " alligat": 701,
  " alligator": 702,
  " alligators": 703,
  " is": 704,
  " isl": 705,
  " islan": 706,
  " island": 707,
  " islands": 708,
  "ue": 709,
  " Sue": 710,
  " A": 711,
  " And": 712,
  " Andy": 713,
  "ry": 714,
  "orry": 715,
  " sorry": 716,
  "ter": 717,
  "fter": 718,
  " after": 719,
  " aftern": 720,
  " afterno": 721,
  " afternoon": 722,
  " afternoons": 723,
  "ok": 724,
  " look": 725,
  " looking": 726,
  " toy": 727,
  " toys": 728,
  "ad": 729,
  "read": 730,
  " read": 731,
  " ready": 732,
  "ind": 733,
  " find": 734,
  " finding": 735,
  " findings": 736,
  " as": 737,
  " asked": 738,
  " j": 739,
  " ju": 740,
  " jum": 741,
  " jump": 742,
  " jumped": 743,
  "ill": 744,
  " will": 745,
  " willing": 746,
  " at": 747,
  " ate": 748,
  " did": 749,
  " didn": 750,
  "ur": 751,
  "urp": 752,
  "urpri": 753,
  " surpri": 754,
  " surpris": 755,
  " surprised": 756,
  "und": 757,
  " found": 758,
  "ug": 759,
  "aug": 760,
  " laug": 761,
  " laughe": 762,
  " laughed": 763,
  " tre": 764,
  " tree": 765,
  " treeh": 766,
  " treehouse": 767,
  " se": 768,
  " see": 769,
  " seem": 770,
  " seemed": 771,
  "ain": 772,
  "gain": 773,
  " again": 774,
  " against": 775,
  "ore": 776,
  " more": 777,
  "ec": 778,
  "pec": 779,
  "peci": 780,
  "pecial": 781,
  " special": 782,
  "ly": 783,
  " fly": 784,
  " flying": 785,
  " can": 786,
  " cann": 787,
  " cannot": 788,
  " re": 789,
  " rem": 790,
  " reme": 791,
  " remem": 792,
  " rememb": 793,
  " remember": 794,
  " remembered": 795,
  "irl": 796,
  " girl": 797,
  " girls": 798,
  " him": 799,
  " himse": 800,
  " himsel": 801,
  " himself": 802,
  "ic": 803,
  " pic": 804,
  " picked": 805,
  "?\"": 806,
  "?\".": 807,
  " are": 808,
  " area": 809,
  " areas": 810,
  "ra": 811,
  " gra": 812,
  " grab": 813,
  " grabb": 814,
  " grabbed": 815,
  "'t": 816,
  "hen": 817,
  " when": 818,
  " whene": 819,
  " whenever": 820,
  " par": 821,
  " park": 822,
  " parking": 823,
  " them": 824,
  " themse": 825,
  " themsel": 826,
  " themselv": 827,
  " themselves": 828,
  "rom": 829,
  " from": 830,
  " sad": 831,
  " sadly": 832,
  "ul": 833,
  "ful": 834,
  "reful": 835,
  " careful": 836,
  " carefuln": 837,
  " carefulnes": 838,
  " carefulness": 839,
  " cl": 840,
  " clo": 841,
  " clos": 842,
  " closer": 843,
  " sc": 844,
  " scar": 845,
  " scared": 846,
  " scaredy": 847,
  "one": 848,
  "veryone": 849,
  " everyone": 850,
  " L": 851,
  " Lu": 852,
  " Luc": 853,
  " Lucy": 854,
  " co": 855,
  " col": 856,
  " color": 857,
  " colors": 858,
  " me": 859,
  " mean": 860,
  " meant": 861,
  " meantim": 862,
  " meantime": 863,
  "ell": 864,
  " fell": 865,
  " fellow": 866,
  " o": 867,
  " old": 868,
  " older": 869,
  "me": 870,
  " came": 871,
  "ty": 872,
  "ret": 873,
  " pret": 874,
  " pretty": 875,
  "ong": 876,
  " long": 877,
  " longer": 878,
  " would": 879,
  " wouldn": 880,
  " car": 881,
  " cars": 882,
  " liked": 883,
  "de": 884,
  " made": 885,
  "my": 886,
  " Amy": 887,
  "ved": 888,
  " lived": 889,
  " W": 890,
  " We": 891,
  " Wea": 892,
  " Weap": 893,
  " Weapon": 894,
  " Weapons": 895,
  "You": 896,
  " You": 897,
  " Your": 898,
  " Yourse": 899,
  " Yoursel": 900,
  " Yourself": 901,
  " Sam": 902,
  " Sammy": 903,
  " Ben": 904,
  " Benn": 905,
  " Benny": 906,
  "pot": 907,
  " Spot": 908,
  " al": 909,
  " alway": 910,
  " always": 911,
  " make": 912,
  " makeu": 913,
  " makeup": 914,
  "ice": 915,
  " nice": 916,
  " nicely": 917,
  " small": 918,
  " smaller": 919,
  " say": 920,
  " says": 921,
  "ried": 922,
  " tried": 923,
  " mu": 924,
  " much": 925,
  "ings": 926,
  " things": 927,
  " y": 928,
  " yu": 929,
  " yum": 930,
  " yummy": 931,
  "hed": 932,
  "ched": 933,
  "tched": 934,
  " watched": 935,
  "ro": 936,
  " fro": 937,
  " frog": 938,
  " frogs": 939,
  "out": 940,
  " ab": 941,
  " about": 942,
  " home": 943,
  " homes": 944,
  "as": 945,
  "ass": 946,
  " pass": 947,
  " passed": 948,
  "au": 949,
  "ause": 950,
  " because": 951,
  " playing": 952,
  "dd": 953,
  "udd": 954,
  "udden": 955,
  "uddenly": 956,
  "Suddenly": 957,
  "pp": 958,
  "pped": 959,
  "apped": 960,
  " clapped": 961,
  " put": 962,
  " puts": 963,
  "ob": 964,
  " Bob": 965,
  " Bobo": 966,
  " wal": 967,
  " walk": 968,
  " walking": 969,
  " un": 970,
  "ted": 971,
  "pected": 972,
  " une": 973,
  " unex": 974,
  " unexpected": 975,
  " F": 976,
  " From": 977,
  "ea": 978,
  " lea": 979,
  " leav": 980,
  " leaves": 981,
  " ta": 982,
  " take": 983,
  " takeof": 984,
  " takeoff": 985,
  "ia": 986,
  " Mia": 987,
  "od": 988,
  " food": 989,
  " foods": 990,
  " sp": 991,
  " spl": 992,
  " splas": 993,
  " splash": 994,
  " J": 995,
  " Jo": 996,
  " Joh": 997,
  " John": 998,
  " Johnn": 999,
  " Johnny": 1000,
  " fl": 1001,
  " flow": 1002,
  " flower": 1003,
  " flowers": 1004,
  "if": 1005,
  " if": 1006,
  "ure": 1007,
  "ture": 1008,
  " picture": 1009,
  " pictures": 1010,
  " box": 1011,
  " boxes": 1012,
  "ick": 1013,
  " stick": 1014,
  " sticks": 1015,
  " we": 1016,
  " wee": 1017,
  " week": 1018,
  " weeks": 1019,
  " sw": 1020,
  " swe": 1021,
  " sweet": 1022,
  " sweeti": 1023,
  " sweetie": 1024,
  " bl": 1025,
  " blue": 1026,
  " blueb": 1027,
  " blueber": 1028,
  " blueberry": 1029,
  " sun": 1030,
  " sunn": 1031,
  " sunny": 1032,
  "uck": 1033,
  "ruck": 1034,
  " truck": 1035,
  " trucks": 1036,
  "oud": 1037,
  " pr": 1038,
  " proud": 1039,
  " proudly": 1040,
  "ish": 1041,
  " fish": 1042,
  " fishb": 1043,
  " fishbow": 1044,
  " fishbowl": 1045,
  " then": 1046,
  " my": 1047,
  " myst": 1048,
  " myste": 1049,
  " mysteri": 1050,
  " mysteriou": 1051,
  " mysterious": 1052,
  "ie": 1053,
  "ield": 1054,
  " field": 1055,
  " fields": 1056,
  ",\"": 1057,
  "',\"": 1058,
  "ep": 1059,
  "keep": 1060,
  " keep": 1061,
  " keeping": 1062,
  "us": 1063,
  " pus": 1064,
  " pushed": 1065,
  "ge": 1066,
  "age": 1067,
  " v": 1068,
  " vo": 1069,
  " voice": 1070,
  " ch": 1071,
  " cha": 1072,
  " chair": 1073,
  " chairs": 1074,
  " get": 1075,
  " gett": 1076,
  " getting": 1077,
  " lot": 1078,
  " lots": 1079,
  "Th": 1080,
  "Than": 1081,
  "Thank": 1082,
  "Thanks": 1083,
  " fe": 1084,
  " feel": 1085,
  " feeling": 1086,
  " who": 1087,
  " whole": 1088,
  "oth": 1089,
  " both": 1090,
  " got": 1091,
  " gott": 1092,
  " gotten": 1093,
  " know": 1094,
  " knowing": 1095,
  " knowingly": 1096,
  "qu": 1097,
  " qu": 1098,
  " quick": 1099,
  " quickly": 1100,
  "ess": 1101,
  " mess": 1102,
  " messy": 1103,
  " dec": 1104,
  " decid": 1105,
  " decided": 1106,
  " red": 1107,
  " redd": 1108,
  " redder": 1109,
  "ally": 1110,
  " Sally": 1111,
  "ight": 1112,
  " night": 1113,
  " nightm": 1114,
  " nightma": 1115,
  " nightmare": 1116,
  " nightmares": 1117,
  "ss": 1118,
  "ress": 1119,
  " dress": 1120,
  " dresses": 1121,
  " D": 1122,
  " Do": 1123,
  " Dog": 1124,
  " Dogg": 1125,
  " Doggy": 1126,
  " every": 1127,
  " everyw": 1128,
  " everywhe": 1129,
  " everywhere": 1130,
  " fa": 1131,
  " fav": 1132,
  "rit": 1133,
  "rite": 1134,
  " favo": 1135,
  " favorite": 1136,
  " any": 1137,
  " anym": 1138,
  " anymore": 1139,
  "na": 1140,
  "nna": 1141,
  " Anna": 1142,
  " Annab": 1143,
  " Annabell": 1144,
  " Annabelle": 1145,
  "ous": 1146,
  "rious": 1147,
  "urious": 1148,
  " curious": 1149,
  " curiously": 1150,
  " hug": 1151,
  " hugg": 1152,
  " hugged": 1153,
  " water": 1154,
  " watered": 1155,
  " than": 1156,
  " thanked": 1157,
  "ig": 1158,
  "ign": 1159,
  " sign": 1160,
  " signs": 1161,
  "ol": 1162,
  "ool": 1163,
  "chool": 1164,
  " school": 1165,
  " schoolw": 1166,
  " schoolwor": 1167,
  " schoolwork": 1168,
  " ra": 1169,
  " rab": 1170,
  " rabb": 1171,
  " rabbit": 1172,
  " rabbits": 1173,
  "ive": 1174,
  " give": 1175,
  "â": 1176,
  "â": 1177,
  " â": 1178,
  "ened": 1179,
  " happened": 1180,
  " gre": 1181,
  " great": 1182,
  " greater": 1183,
  " Mom": 1184,
  " Mommy": 1185,
  " So": 1186,
  " Soon": 1187,
  " eat": 1188,
  " eating": 1189,
  " show": 1190,
  " showed": 1191,
  " E": 1192,
  " Every": 1193,
  " Everyw": 1194,
  " Everywhe": 1195,
  " Everywhere": 1196,
  "ave": 1197,
  " gave": 1198,
  " gavel": 1199,
  "um": 1200,
  "ump": 1201,
  "rump": 1202,
  "rumpy": 1203,
  " grumpy": 1204,
  " br": 1205,
  " brok": 1206,
  " broken": 1207,
  "opp": 1208,
  "opped": 1209,
  " stopped": 1210,
  " run": 1211,
  " runn": 1212,
  " running": 1213,
  " this": 1214,
  "They": 1215,
  "Tom": 1216,
  "Tommy": 1217,
  "Yes": 1218,
  " Yes": 1219,
  "ile": 1220,
  " while": 1221,
  "ink": 1222,
  " think": 1223,
  " thinks": 1224,
  " told": 1225,
  "ull": 1226,
  " pull": 1227,
  " pulled": 1228,
  " sk": 1229,
  " sky": 1230,
  " inside": 1231,
  " sl": 1232,
  " slide": 1233,
  " am": 1234,
  " ama": 1235,
  " amaz": 1236,
  " amazing": 1237,
  " dad": 1238,
  " dads": 1239,
  "iny": 1240,
  " shiny": 1241,
  " rock": 1242,
  " rocks": 1243,
  "lew": 1244,
  " flew": 1245,
  " ri": 1246,
  " right": 1247,
  " rightful": 1248,
  " pe": 1249,
  " peop": 1250,
  " people": 1251,
  "Wh": 1252,
  "What": 1253,
  "Whate": 1254,
  "Whatever": 1255,
  "under": 1256,
  " under": 1257,
  " underst": 1258,
  " understan": 1259,
  " understand": 1260,
  " understanding": 1261,
  " how": 1262,
  " howe": 1263,
  " however": 1264,
  " need": 1265,
  " needed": 1266,
  "ara": 1267,
  " Sara": 1268,
  " Sarah": 1269,
  "But": 1270,
  "Butter": 1271,
  "Butterf": 1272,
  "Butterfly": 1273,
  " tow": 1274,
  " town": 1275,
  " towns": 1276,
  " townsp": 1277,
  " townspe": 1278,
  " townspeop": 1279,
  " townspeople": 1280,
  " ho": 1281,
  " hole": 1282,
  "ven": 1283,
  " even": 1284,
  " evening": 1285,
  " mo": 1286,
  " move": 1287,
  " movem": 1288,
  " movement": 1289,
  " movements": 1290,
  " let": 1291,
  " letter": 1292,
  " letters": 1293,
  " C": 1294,
  " Can": 1295,
  " Cand": 1296,
  " Candy": 1297,
  "ff": 1298,
  "uff": 1299,
  "uffy": 1300,
  "luffy": 1301,
  " Fluffy": 1302,
  "ise": 1303,
  " noise": 1304,
  " hand": 1305,
  " hands": 1306,
  " handsome": 1307,
  "urn": 1308,
  " turn": 1309,
  " turned": 1310,
  "pl": 1311,
  " expl": 1312,
  " explore": 1313,
  " explorer": 1314,
  " explorers": 1315,
  "rm": 1316,
  " warm": 1317,
  " warmt": 1318,
  " warmth": 1319,
  "urt": 1320,
  " hurt": 1321,
  " hurts": 1322,
  "ap": 1323,
  "aper": 1324,
  " paper": 1325,
  " papers": 1326,
  " walked": 1327,
  " kind": 1328,
  "ness": 1329,
  " kindness": 1330,
  " His": 1331,
  " Hist": 1332,
  " Histor": 1333,
  " History": 1334,
  "ny": 1335,
  "unny": 1336,
  " bunny": 1337,
  " ba": 1338,
  " bag": 1339,
  " bags": 1340,
  " us": 1341,
  " used": 1342,
  " just": 1343,
  " justice": 1344,
  " tr": 1345,
  " train": 1346,
  " trains": 1347,
  " try": 1348,
  " trying": 1349,
  "igh": 1350,
  " high": 1351,
  " highway": 1352,
  " ide": 1353,
  " idea": 1354,
  " near": 1355,
  " nearb": 1356,
  " nearby": 1357,
  " list": 1358,
  " listen": 1359,
  " listening": 1360,
  "fe": 1361,
  " safe": 1362,
  " safekeep": 1363,
  " safekeeping": 1364,
  "king": 1365,
  " making": 1366,
  " come": 1367,
  " comes": 1368,
  " cle": 1369,
  " clean": 1370,
  " cleaned": 1371,
  " bear": 1372,
  " bears": 1373,
  " bet": 1374,
  " better": 1375,
  "gry": 1376,
  " angry": 1377,
  "ant": 1378,
  "tant": 1379,
  "por": 1380,
  "impor": 1381,
  " impor": 1382,
  " important": 1383,
  " en": 1384,
  " enj": 1385,
  " enjo": 1386,
  " enjoy": 1387,
  " enjoyed": 1388,
  "ving": 1389,
  " having": 1390,
  " fi": 1391,
  " fix": 1392,
  " fixed": 1393,
  " tw": 1394,
  " two": 1395,
  "ream": 1396,
  " cream": 1397,
  " creams": 1398,
  "rong": 1399,
  " strong": 1400,
  " stronger": 1401,
  " Th": 1402,
  " This": 1403,
  " le": 1404,
  " lef": 1405,
  " left": 1406,
  " lefto": 1407,
  " leftover": 1408,
  " leftovers": 1409,
  "ion": 1410,
  "ation": 1411,
  " station": 1412,
  " stations": 1413,
  " dan": 1414,
  " danc": 1415,
  " danced": 1416,
  " never": 1417,
  "ond": 1418,
  " pond": 1419,
  " ponds": 1420,
  "Mom": 1421,
  "Mommy": 1422,
  " cake": 1423,
  " don": 1424,
  " donke": 1425,
  " donkey": 1426,
  " donkeys": 1427,
  " shar": 1428,
  " shared": 1429,
  " bug": 1430,
  " bugs": 1431,
  " wind": 1432,
  " window": 1433,
  " windows": 1434,
  " windowsill": 1435,
  " che": 1436,
  " cheer": 1437,
  " cheered": 1438,
  " by": 1439,
  " bye": 1440,
  "ine": 1441,
  " mine": 1442,
  " tal": 1443,
  " talk": 1444,
  " talks": 1445,
  " hard": 1446,
  " harder": 1447,
  " end": 1448,
  " ending": 1449,
  " mag": 1450,
  " magic": 1451,
  " magical": 1452,
  "\n\n": 1453,
  "ate": 1454,
  "rate": 1455,
  "rateful": 1456,
  " grateful": 1457,
  " Then": 1458,
  " bu": 1459,
  " buil": 1460,
  " build": 1461,
  " building": 1462,
  " gam": 1463,
  " game": 1464,
  " or": 1465,
  " ord": 1466,
  " order": 1467,
  " ordered": 1468,
  " over": 1469,
  " overj": 1470,
  " overjo": 1471,
  " overjoy": 1472,
  " overjoyed": 1473,
  " door": 1474,
  " doors": 1475,
  "imb": 1476,
  " climb": 1477,
  " climbed": 1478,
  "lled": 1479,
  " called": 1480,
  " bad": 1481,
  " badly": 1482,
  " fam": 1483,
  " family": 1484,
  "and": 1485,
  " land": 1486,
  " landed": 1487,
  "Let": 1488,
  "Lets": 1489,
  " kit": 1490,
  " kitc": 1491,
  " kitchen": 1492,
  " book": 1493,
  " books": 1494,
  " bookshe": 1495,
  " bookshel": 1496,
  " bookshelf": 1497,
  " ground": 1498,
  " grounds": 1499,
  " groundskeep": 1500,
  " groundskeeper": 1501,
  "As": 1502,
  "Ask": 1503,
  " way": 1504,
  " ways": 1505,
  " loud": 1506,
  " louder": 1507,
  " bea": 1508,
  " beaut": 1509,
  " beauti": 1510,
  " beautiful": 1511,
  " stor": 1512,
  " story": 1513,
  " storyb": 1514,
  " storybo": 1515,
  " storybook": 1516,
  " gl": 1517,
  " glad": 1518,
  " gladly": 1519,
  "ers": 1520,
  "kers": 1521,
  "iskers": 1522,
  " Wh": 1523,
  " What": 1524,
  "ook": 1525,
  "Look": 1526,
  "Looks": 1527,
  "'m": 1528,
  "kes": 1529,
  " likes": 1530,
  " love": 1531,
  " lovely": 1532,
  " ke": 1533,
  " kep": 1534,
  " kept": 1535,
  "her": 1536,
  "ather": 1537,
  " feather": 1538,
  " feathers": 1539,
  " K": 1540,
  " Kit": 1541,
  " Kitty": 1542,
  " com": 1543,
  " coming": 1544,
  " far": 1545,
  " farm": 1546,
  " farmer": 1547,
  "No": 1548,
  " No": 1549,
  " Nothing": 1550,
  " When": 1551,
  " Whene": 1552,
  " Whenever": 1553,
  " wait": 1554,
  " waited": 1555,
  " Her": 1556,
  " Herb": 1557,
  " Herbie": 1558,
  " ever": 1559,
  " everg": 1560,
  " evergre": 1561,
  " evergreen": 1562,
  "arden": 1563,
  " garden": 1564,
  " gardener": 1565,
  " whe": 1566,
  " where": 1567,
  " wherever": 1568,
  " still": 1569,
  " stillness": 1570,
  "ood": 1571,
  " wood": 1572,
  " woods": 1573,
  "row": 1574,
  " grow": 1575,
  " growl": 1576,
  " growled": 1577,
  "ough": 1578,
  "rough": 1579,
  " through": 1580,
  " throughout": 1581,
  "ock": 1582,
  " block": 1583,
  " blocks": 1584,
  "ct": 1585,
  "ctor": 1586,
  " doctor": 1587,
  " doctors": 1588,
  " unt": 1589,
  " until": 1590,
  "xt": 1591,
  " next": 1592,
  " sn": 1593,
  " snow": 1594,
  " snowm": 1595,
  " snowman": 1596,
  " should": 1597,
  " shoulder": 1598,
  " In": 1599,
  " Inside": 1600,
  "iz": 1601,
  "ized": 1602,
  " real": 1603,
  " realized": 1604,
  " now": 1605,
  " nowhe": 1606,
  " nowhere": 1607,
  " P": 1608,
  " Pet": 1609,
  " Peter": 1610,
  " jo": 1611,
  " join": 1612,
  " joined": 1613,
  " stay": 1614,
  " stayed": 1615,
  " kid": 1616,
  " kids": 1617,
  "rel": 1618,
  "quir": 1619,
  "quirrel": 1620,
  " squirrel": 1621,
  " squirrels": 1622,
  "be": 1623,
  "ybe": 1624,
  " Maybe": 1625,
  "our": 1626,
  " cour": 1627,
  " course": 1628,
  "th": 1629,
  "thy": 1630,
  "althy": 1631,
  " healthy": 1632,
  " hat": 1633,
  " hats": 1634,
  " boat": 1635,
  " boats": 1636,
  "les": 1637,
  "bles": 1638,
  "bbles": 1639,
  " bubbles": 1640,
  "ust": 1641,
  "Just": 1642,
  "ist": 1643,
  " whist": 1644,
  " whistle": 1645,
  " bra": 1646,
  " brave": 1647,
  " bravely": 1648,
  "ip": 1649,
  " wip": 1650,
  " wiped": 1651,
  " happily": 1652,
  " app": 1653,
  " apple": 1654,
  " bri": 1655,
  " bright": 1656,
  " brightly": 1657,
  "orn": 1658,
  " morn": 1659,
  " morning": 1660,
  "Now": 1661,
  " Now": 1662,
  " met": 1663,
  " metal": 1664,
  " rain": 1665,
  " rainb": 1666,
  " rainbow": 1667,
  " rainbows": 1668,
  " place": 1669,
  " wat": 1670,
  " watch": 1671,
  "It": 1672,
  "Its": 1673,
  " doll": 1674,
  " dolls": 1675,
  " dra": 1676,
  " draw": 1677,
  " drawing": 1678,
  "ree": 1679,
  " three": 1680,
  " fr": 1681,
  " fru": 1682,
  " fruit": 1683,
  " fruits": 1684,
  " soft": 1685,
  " softly": 1686,
  "Can": 1687,
  "iss": 1688,
  " miss": 1689,
  " missed": 1690,
  " being": 1691,
  "When": 1692,
  "Whene": 1693,
  "Whenever": 1694,
  "by": 1695,
  " baby": 1696,
  " babys": 1697,
  " babysit": 1698,
  " babysitter": 1699,
  " ad": 1700,
  " adv": 1701,
  " advent": 1702,
  " adventure": 1703,
  " adventures": 1704,
  " pa": 1705,
  " pare": 1706,
  " parent": 1707,
  " parents": 1708,
  " Let": 1709,
  " Lets": 1710,
  " mouse": 1711,
  "dded": 1712,
  " nodded": 1713,
  "ished": 1714,
  " wished": 1715,
  " dr": 1716,
  " drink": 1717,
  " drinking": 1718,
  " lost": 1719,
  "fore": 1720,
  " before": 1721,
  " bit": 1722,
  " bite": 1723,
  "dy": 1724,
  "eddy": 1725,
  " teddy": 1726,
  " teddyb": 1727,
  " teddybear": 1728,
  " cry": 1729,
  " crying": 1730,
  " tou": 1731,
  " touch": 1732,
  " touchs": 1733,
  " bed": 1734,
  " bedro": 1735,
  " bedroom": 1736,
  " bedrooms": 1737,
  " green": 1738,
  " greens": 1739,
  "so": 1740,
  " also": 1741,
  "iff": 1742,
  " diff": 1743,
  " differe": 1744,
  " different": 1745,
  " differently": 1746,
  "illy": 1747,
  " silly": 1748,
  " R": 1749,
  " Re": 1750,
  " Remy": 1751,
  " cook": 1752,
  " cooki": 1753,
  " cookies": 1754,
  "gan": 1755,
  " began": 1756,
  " smile": 1757,
  " smiley": 1758,
  " pain": 1759,
  " paint": 1760,
  " painting": 1761,
  "He": 1762,
  "Hey": 1763,
  "ired": 1764,
  " tired": 1765,
  " tiredness": 1766,
  "Hi": 1767,
  "Hipp": 1768,
  "Hippy": 1769,
  " po": 1770,
  " poin": 1771,
  " point": 1772,
  " pointing": 1773,
  "That": 1774,
  "rk": 1775,
  " dark": 1776,
  " darker": 1777,
  " te": 1778,
  " teach": 1779,
  " teachable": 1780,
  "irst": 1781,
  " first": 1782,
  " care": 1783,
  " caref": 1784,
  " carefull": 1785,
  " carefully": 1786,
  "cy": 1787,
  "Lu": 1788,
  "Lucy": 1789,
  "owl": 1790,
  " owl": 1791,
  " owls": 1792,
  "Then": 1793,
  " sat": 1794,
  " satis": 1795,
  " satisf": 1796,
  " satisfi": 1797,
  " satisfied": 1798,
  " hear": 1799,
  " heart": 1800,
  " hearts": 1801,
  " heartsick": 1802,
  "ries": 1803,
  "ories": 1804,
  " stories": 1805,
  "up": 1806,
  " cup": 1807,
  " cupb": 1808,
  " cupbo": 1809,
  " cupboard": 1810,
  " cupboards": 1811,
  "gg": 1812,
  "gged": 1813,
  " wagged": 1814,
  " yell": 1815,
  " yellow": 1816,
  " yellows": 1817,
  "â": 1818,
  ".â": 1819,
  " store": 1820,
  " storekeep": 1821,
  " storekeeper": 1822,
  "Ben": 1823,
  "Benny": 1824,
  " fin": 1825,
  " finished": 1826,
  "ag": 1827,
  " eag": 1828,
  " eager": 1829,
  " eagerly": 1830,
  "led": 1831,
  "bled": 1832,
  " trou": 1833,
  " trouble": 1834,
  " troublem": 1835,
  " troublema": 1836,
  " troublemakers": 1837,
  "leep": 1838,
  " sleep": 1839,
  " sleepy": 1840,
  " lad": 1841,
  " lady": 1842,
  " ladyb": 1843,
  " ladybug": 1844,
  " ladybugs": 1845,
  " ey": 1846,
  " eyes": 1847,
  " eyesh": 1848,
  " eyeshad": 1849,
  " eyeshadow": 1850,
  " sit": 1851,
  " sitt": 1852,
  " sitting": 1853,
  " sing": 1854,
  " singing": 1855,
  "pe": 1856,
  " rope": 1857,
  " use": 1858,
  " useful": 1859,
  " has": 1860,
  " hasn": 1861,
  " ok": 1862,
  " okay": 1863,
  " bar": 1864,
  " barked": 1865,
  " going": 1866,
  " our": 1867,
  " ours": 1868,
  "ng": 1869,
  " sang": 1870,
  "ma": 1871,
  "rand": 1872,
  "randma": 1873,
  " grandma": 1874,
  " la": 1875,
  " lake": 1876,
  " ag": 1877,
  " agre": 1878,
  " agreed": 1879,
  "We": 1880,
  "Wee": 1881,
  "Weee": 1882,
  "ane": 1883,
  " Jane": 1884,
  " Janey": 1885,
  "ild": 1886,
  " child": 1887,
  " childre": 1888,
  " children": 1889,
  " beh": 1890,
  " behind": 1891,
  " bus": 1892,
  " bush": 1893,
  " bushy": 1894,
  "rew": 1895,
  " threw": 1896,
  " face": 1897,
  " plan": 1898,
  " plane": 1899,
  " flo": 1900,
  " floor": 1901,
  " floors": 1902,
  " head": 1903,
  " heads": 1904,
  "oral": 1905,
  " moral": 1906,
  " party": 1907,
  "zy": 1908,
  "izzy": 1909,
  " dizzy": 1910,
  " dis": 1911,
  " disa": 1912,
  " disapp": 1913,
  " disappear": 1914,
  " disappeared": 1915,
  "ray": 1916,
  "rayon": 1917,
  " crayon": 1918,
  " crayons": 1919,
  " ask": 1920,
  " asks": 1921,
  "ath": 1922,
  " bath": 1923,
  " bathro": 1924,
  " bathroom": 1925,
  " worked": 1926,
  "llow": 1927,
  " follow": 1928,
  " followed": 1929,
  "ub": 1930,
  "ubb": 1931,
  " rubb": 1932,
  " rubbed": 1933,
  "hes": 1934,
  "ches": 1935,
  " bran": 1936,
  " branch": 1937,
  " sand": 1938,
  " sandw": 1939,
  " sandwi": 1940,
  " sandwich": 1941,
  " ice": 1942,
  " icec": 1943,
  " icecream": 1944,
  " mon": 1945,
  " monst": 1946,
  " monster": 1947,
  "ax": 1948,
  "Max": 1949,
  "Maxim": 1950,
  "Maximum": 1951,
  "So": 1952,
  "Soon": 1953,
  " duck": 1954,
  " ducks": 1955,
  " sound": 1956,
  " sounds": 1957,
  " hop": 1958,
  " hoped": 1959,
  " hun": 1960,
  " hungry": 1961,
  "Hell": 1962,
  "Hello": 1963,
  "day": 1964,
  " today": 1965,
  " hill": 1966,
  " hills": 1967,
  " de": 1968,
  " deep": 1969,
  " deeper": 1970,
  " con": 1971,
  " cont": 1972,
  " contin": 1973,
  " continu": 1974,
  " continued": 1975,
  " G": 1976,
  " Grandma": 1977,
  "lly": 1978,
  "olly": 1979,
  " Molly": 1980,
  " top": 1981,
  " tops": 1982,
  " yard": 1983,
  " yards": 1984,
  " cold": 1985,
  " colder": 1986,
  "ort": 1987,
  "fort": 1988,
  "fortable": 1989,
  " comfortable": 1990,
  " z": 1991,
  " zo": 1992,
  " zoom": 1993,
  " zoomed": 1994,
  " dir": 1995,
  " dirty": 1996,
  "ase": 1997,
  "lease": 1998,
  "Please": 1999,
  "ite": 2000,
  " white": 2001,
  " whiteb": 2002,
  " whitebo": 2003,
  " whiteboard": 2004,
  " rest": 2005,
  " restl": 2006,
  " restless": 2007,
  " restlessness": 2008,
  " own": 2009,
  " owner": 2010,
  " tall": 2011,
  " taller": 2012,
  "ank": 2013,
  " blank": 2014,
  " blanket": 2015,
  " blankets": 2016,
  " cut": 2017,
  " cute": 2018,
  " Jack": 2019,
  " Jackie": 2020,
  "At": 2021,
  "Att": 2022,
  "Attic": 2023,
  "Don": 2024,
  "ease": 2025,
  " please": 2026,
  " pick": 2027,
  " picks": 2028,
  " thing": 2029,
  "ect": 2030,
  "fect": 2031,
  "erfect": 2032,
  " perfect": 2033,
  " perfectly": 2034,
  " cra": 2035,
  " crab": 2036,
  " crabs": 2037,
  " here": 2038,
  "tim": 2039,
  "times": 2040,
  " sometimes": 2041,
  " Fin": 2042,
  " Finally": 2043,
  " hid": 2044,
  " hiding": 2045,
  "After": 2046,
  "Afterw": 2047,
  "Afterward": 2048,
  "Afterwards": 2049,
  " race": 2050,
  "ied": 2051,
  " repl": 2052,
  " replied": 2053,
  "Wow": 2054,
  " hot": 2055,
  " hotel": 2056,
  " hotels": 2057,
  " forg": 2058,
  " forgot": 2059,
  " forgott": 2060,
  " forgotten": 2061,
  " su": 2062,
  " suc": 2063,
  " succ": 2064,
  " success": 2065,
  " successful": 2066,
  " lau": 2067,
  " laugh": 2068,
  " laughs": 2069,
  " tail": 2070,
  " tails": 2071,
  " sho": 2072,
  " shoes": 2073,
  " grass": 2074,
  " grassh": 2075,
  " grasshopp": 2076,
  " grasshopper": 2077,
  " cou": 2078,
  " count": 2079,
  " counted": 2080,
  " bel": 2081,
  " belie": 2082,
  " believe": 2083,
  " stop": 2084,
  " stops": 2085,
  " shout": 2086,
  " shouted": 2087,
  " surprise": 2088,
  " tell": 2089,
  " tells": 2090,
  " trees": 2091,
  " song": 2092,
  " songs": 2093,
  " worry": 2094,
  " worrying": 2095,
  " Dad": 2096,
  " Daddy": 2097,
  "cked": 2098,
  "ocked": 2099,
  " knocked": 2100,
  "ak": 2101,
  "reak": 2102,
  " break": 2103,
  " breakf": 2104,
  " breakfast": 2105,
  " tast": 2106,
  " tasty": 2107,
  " tri": 2108,
  " trip": 2109,
  " trips": 2110,
  "â": 2111,
  "!â": 2112,
  "!ââ": 2113,
  "Why": 2114,
  " del": 2115,
  " delic": 2116,
  " delici": 2117,
  " delicious": 2118,
  " deliciously": 2119,
  "range": 2120,
  " orange": 2121,
  " swing": 2122,
  " swinging": 2123,
  " rea": 2124,
  " reached": 2125,
  " does": 2126,
  " doesn": 2127,
  "Sam": 2128,
  "Sammy": 2129,
  " prin": 2130,
  " princ": 2131,
  " princess": 2132,
  " princesses": 2133,
  " lion": 2134,
  " lions": 2135,
  " friendly": 2136,
  "Sue": 2137,
  " hair": 2138,
  " hairy": 2139,
  " Suddenly": 2140,
  " pretend": 2141,
  " pretended": 2142,
  "Anna": 2143,
  "Annab": 2144,
  "Annabell": 2145,
  "Annabelle": 2146,
  " cried": 2147,
  "ient": 2148,
  "atient": 2149,
  " patient": 2150,
  " patiently": 2151,
  " Mr": 2152,
  " Mrs": 2153,
  "isy": 2154,
  "aisy": 2155,
  " Daisy": 2156,
  " wet": 2157,
  " wetness": 2158,
  " prom": 2159,
  " promis": 2160,
  " promised": 2161,
  " another": 2162,
  " full": 2163,
  " fully": 2164,
  "ila": 2165,
  " Lila": 2166,
  " Lilah": 2167,
  " dance": 2168,
  " That": 2169,
  "She": 2170,
  "Shelly": 2171,
  " swim": 2172,
  " swimm": 2173,
  " swimming": 2174,
  " As": 2175,
  " Ash": 2176,
  " Asht": 2177,
  " Ashtray": 2178,
  "ber": 2179,
  "umber": 2180,
  " number": 2181,
  " numbered": 2182,
  " smell": 2183,
  " smelly": 2184,
  " gone": 2185,
  " ant": 2186,
  " ants": 2187,
  "Sara": 2188,
  "Sarah": 2189,
  " hold": 2190,
  " holding": 2191,
  "av": 2192,
  "avy": 2193,
  " heavy": 2194,
  " fire": 2195,
  " firem": 2196,
  " fireman": 2197,
  " helping": 2198,
  " only": 2199,
  "ered": 2200,
  " wond": 2201,
  " wonder": 2202,
  " wonderful": 2203,
  " wear": 2204,
  " wearing": 2205,
  " listened": 2206,
  " cool": 2207,
  " cooler": 2208,
  " ac": 2209,
  " acro": 2210,
  " across": 2211,
  "inn": 2212,
  "inner": 2213,
  " dinner": 2214,
  "ark": 2215,
  " spark": 2216,
  " sparkly": 2217,
  " less": 2218,
  " lesson": 2219,
  " lessons": 2220,
  "ater": 2221,
  "Later": 2222,
  " stuck": 2223,
  " slow": 2224,
  " slowly": 2225,
  " light": 2226,
  " lights": 2227,
  " O": 2228,
  " Oll": 2229,
  " Ollie": 2230,
  " bro": 2231,
  " broke": 2232,
  " close": 2233,
  " closely": 2234,
  " wall": 2235,
  " walls": 2236,
  " dri": 2237,
  " driver": 2238,
  " drivers": 2239,
  " All": 2240,
  " Allig": 2241,
  " Alligat": 2242,
  " Alligator": 2243,
  " Alligators": 2244,
  " fair": 2245,
  " fairy": 2246,
  "oment": 2247,
  " moment": 2248,
  " moments": 2249,
  " sees": 2250,
  " seesa": 2251,
  " seesaw": 2252,
  " im": 2253,
  " imp": 2254,
  " impress": 2255,
  " impressive": 2256,
  " impressively": 2257,
  " done": 2258,
  " doneA": 2259,
  " doneAmy": 2260,
  "ves": 2261,
  "ives": 2262,
  " gives": 2263,
  " pi": 2264,
  " piec": 2265,
  " pieces": 2266,
  " tiny": 2267,
  "ger": 2268,
  " danger": 2269,
  " dangerous": 2270,
  " been": 2271,
  "sh": 2272,
  " mush": 2273,
  " mushro": 2274,
  " mushroom": 2275,
  " mushrooms": 2276,
  " must": 2277,
  "che": 2278,
  "ache": 2279,
  " mustache": 2280,
  " Everyone": 2281,
  " doing": 2282,
  " wise": 2283,
  " fight": 2284,
  " fighting": 2285,
  " dream": 2286,
  " dreams": 2287,
  " looks": 2288,
  " thank": 2289,
  " thankful": 2290,
  " thankfulness": 2291,
  " ar": 2292,
  " arri": 2293,
  " arrived": 2294,
  "Ok": 2295,
  "Okay": 2296,
  "red": 2297,
  " Fred": 2298,
  " Fredd": 2299,
  " Freddie": 2300,
  "Mia": 2301,
  "Miaow": 2302,
  "rot": 2303,
  " carrot": 2304,
  " carrots": 2305,
  "oney": 2306,
  " money": 2307,
  " held": 2308,
  " buy": 2309,
  " buying": 2310,
  " reach": 2311,
  "In": 2312,
  "Inside": 2313,
  " pen": 2314,
  " penc": 2315,
  " pencil": 2316,
  " pencils": 2317,
  " might": 2318,
  " mighty": 2319,
  " fall": 2320,
  " falls": 2321,
  " swam": 2322,
  " swamp": 2323,
  "ears": 2324,
  " years": 2325,
  "tle": 2326,
  " bot": 2327,
  " bottle": 2328,
  "ught": 2329,
  " caught": 2330,
  " hide": 2331,
  " hidea": 2332,
  " hideaway": 2333,
  " why": 2334,
  " cloud": 2335,
  " clouds": 2336,
  " blew": 2337,
  " cast": 2338,
  " castle": 2339,
  " scary": 2340,
  " air": 2341,
  " airpor": 2342,
  " airport": 2343,
  " gu": 2344,
  " guit": 2345,
  " guitar": 2346,
  " guitars": 2347,
  " nest": 2348,
  " nests": 2349,
  " mat": 2350,
  " matter": 2351,
  " matters": 2352,
  " name": 2353,
  " seen": 2354,
  "ely": 2355,
  " lon": 2356,
  " lonely": 2357,
  " plant": 2358,
  " plants": 2359,
  "ary": 2360,
  " Mary": 2361,
  " tea": 2362,
  " teac": 2363,
  " teacher": 2364,
  " teachers": 2365,
  " colorful": 2366,
  "ins": 2367,
  " twins": 2368,
  "uddy": 2369,
  " Buddy": 2370,
  "ower": 2371,
  " power": 2372,
  " powerful": 2373,
  " treat": 2374,
  " treats": 2375,
  "que": 2376,
  " que": 2377,
  " queen": 2378,
  " queens": 2379,
  " gif": 2380,
  " gift": 2381,
  " gifts": 2382,
  " sure": 2383,
  " surely": 2384,
  " hopped": 2385,
  " pink": 2386,
  " pinky": 2387,
  " ste": 2388,
  " stepped": 2389,
  "oup": 2390,
  " soup": 2391,
  " soups": 2392,
  "cle": 2393,
  "cycle": 2394,
  " bicycle": 2395,
  " job": 2396,
  " jobs": 2397,
  "'re": 2398,
  "ph": 2399,
  "leph": 2400,
  "lephant": 2401,
  " elephant": 2402,
  " elephants": 2403,
  "key": 2404,
  " monkey": 2405,
  " monkeys": 2406,
  " turns": 2407,
  " spo": 2408,
  " spoon": 2409,
  " spoons": 2410,
  " fill": 2411,
  " filled": 2412,
  " mum": 2413,
  " mummy": 2414,
  " set": 2415,
  " sett": 2416,
  " settled": 2417,
  " je": 2418,
  " jew": 2419,
  " jewel": 2420,
  " jewelry": 2421,
  "gon": 2422,
  " dragon": 2423,
  " dragons": 2424,
  " games": 2425,
  " waved": 2426,
  "ze": 2427,
  "eze": 2428,
  " sne": 2429,
  " sneeze": 2430,
  " After": 2431,
  " Afterw": 2432,
  " Afterward": 2433,
  " Afterwards": 2434,
  " anything": 2435,
  " alone": 2436,
  "Oh": 2437,
  "Ohh": 2438,
  "Ohhh": 2439,
  " brother": 2440,
  " brothers": 2441,
  "zz": 2442,
  "uzz": 2443,
  " puzz": 2444,
  " puzzle": 2445,
  "asure": 2446,
  " treasure": 2447,
  " treasures": 2448,
  " There": 2449,
  " cand": 2450,
  " candy": 2451,
  "ix": 2452,
  " mix": 2453,
  " mixed": 2454,
  "Jo": 2455,
  "Joh": 2456,
  "John": 2457,
  "Johnny": 2458,
  " mar": 2459,
  " march": 2460,
  "mp": 2461,
  " emp": 2462,
  " empty": 2463,
  "ang": 2464,
  " chang": 2465,
  " changed": 2466,
  "ne": 2467,
  "ney": 2468,
  " jour": 2469,
  " journey": 2470,
  " journeys": 2471,
  " mout": 2472,
  " mouth": 2473,
  " mouths": 2474,
  "art": 2475,
  " smart": 2476,
  " smartest": 2477,
  "This": 2478,
  " gent": 2479,
  " gentle": 2480,
  " gentlem": 2481,
  " gentleman": 2482,
  " spot": 2483,
  " spotted": 2484,
  "oo": 2485,
  " choo": 2486,
  " choose": 2487,
  " word": 2488,
  " words": 2489,
  " tight": 2490,
  " tightly": 2491,
  " sea": 2492,
  " seaw": 2493,
  " seawe": 2494,
  " seaweed": 2495,
  " cre": 2496,
  " creat": 2497,
  " creative": 2498,
  " pot": 2499,
  " potat": 2500,
  " potato": 2501,
  " potatoes": 2502,
  " bee": 2503,
  " beef": 2504,
  "Her": 2505,
  "Herb": 2506,
  "Herbie": 2507,
  "ces": 2508,
  " faces": 2509,
  " pie": 2510,
  " piece": 2511,
  " pieceful": 2512,
  " sna": 2513,
  " snake": 2514,
  " tra": 2515,
  " trave": 2516,
  " travel": 2517,
  " travels": 2518,
  " world": 2519,
  " worlds": 2520,
  "eak": 2521,
  " weak": 2522,
  " weaker": 2523,
  "\".": 2524,
  "'\".": 2525,
  "icy": 2526,
  " spicy": 2527,
  "oun": 2528,
  " boun": 2529,
  " bounce": 2530,
  "are": 2531,
  "quare": 2532,
  " square": 2533,
  " squares": 2534,
  " win": 2535,
  " winter": 2536,
  " wintery": 2537,
  " arm": 2538,
  " arms": 2539,
  " wrong": 2540,
  "Spot": 2541,
  "ucky": 2542,
  " lucky": 2543,
  " tower": 2544,
  " towering": 2545,
  "lf": 2546,
  " shelf": 2547,
  "ister": 2548,
  " sister": 2549,
  " sisters": 2550,
  " makes": 2551,
  "ace": 2552,
  " space": 2553,
  " spacec": 2554,
  " spacecra": 2555,
  " spacecraf": 2556,
  " spacecraft": 2557,
  " hit": 2558,
  " hits": 2559,
  "Do": 2560,
  "Dogg": 2561,
  "Doggy": 2562,
  "bo": 2563,
  "board": 2564,
  " black": 2565,
  " blackboard": 2566,
  " blackboards": 2567,
  " key": 2568,
  " keys": 2569,
  " won": 2570,
  " wonde": 2571,
  " wondeered": 2572,
  "Bob": 2573,
  "Bobo": 2574,
  " clothe": 2575,
  " clothes": 2576,
  " clothesp": 2577,
  " clothespins": 2578,
  "iet": 2579,
  " quiet": 2580,
  " quietly": 2581,
  "dge": 2582,
  " bridge": 2583,
  " brought": 2584,
  "oom": 2585,
  "oomy": 2586,
  " gloomy": 2587,
  " nap": 2588,
  " napk": 2589,
  " napkin": 2590,
  "elc": 2591,
  "elcome": 2592,
  " welcome": 2593,
  " mus": 2594,
  " music": 2595,
  " musici": 2596,
  " musician": 2597,
  " musicians": 2598,
  " round": 2599,
  " rounded": 2600,
  "ring": 2601,
  " string": 2602,
  " wants": 2603,
  "ead": 2604,
  "stead": 2605,
  " instead": 2606,
  " leaf": 2607,
  " leafy": 2608,
  " ride": 2609,
  "os": 2610,
  "osa": 2611,
  "inosa": 2612,
  "inosaur": 2613,
  " dinosaur": 2614,
  " dinosaurs": 2615,
  " button": 2616,
  " buttons": 2617,
  "aught": 2618,
  "aughty": 2619,
  " naughty": 2620,
  "oc": 2621,
  "ocol": 2622,
  " chocol": 2623,
  " chocolate": 2624,
  " talked": 2625,
  "lla": 2626,
  " Ella": 2627,
  " sec": 2628,
  " secret": 2629,
  " secrets": 2630,
  " rel": 2631,
  " relie": 2632,
  " relieved": 2633,
  " king": 2634,
  " kingd": 2635,
  " kingdom": 2636,
  " pol": 2637,
  " polite": 2638,
  "ppy": 2639,
  "uppy": 2640,
  " puppy": 2641,
  " ru": 2642,
  " rude": 2643,
  "pes": 2644,
  " shapes": 2645,
  "ching": 2646,
  " watching": 2647,
  " well": 2648,
  " welled": 2649,
  " sharing": 2650,
  "ask": 2651,
  "asket": 2652,
  " basket": 2653,
  " basketb": 2654,
  " basketball": 2655,
  " basketballs": 2656,
  "isit": 2657,
  " visit": 2658,
  " visited": 2659,
  " leg": 2660,
  " legs": 2661,
  " river": 2662,
  " rivers": 2663,
  " dry": 2664,
  " drying": 2665,
  " bowl": 2666,
  " bowls": 2667,
  "oke": 2668,
  " woke": 2669,
  " snack": 2670,
  " snacks": 2671,
  "His": 2672,
  " wish": 2673,
  " fox": 2674,
  " foxes": 2675,
  "From": 2676,
  " really": 2677,
  " fur": 2678,
  " furry": 2679,
  " beach": 2680,
  "ten": 2681,
  " kitten": 2682,
  " kittens": 2683,
  " bor": 2684,
  " boring": 2685,
  "mb": 2686,
  " emb": 2687,
  " embar": 2688,
  " embarra": 2689,
  " embarrass": 2690,
  " embarrassed": 2691,
  " someone": 2692,
  " pro": 2693,
  " proble": 2694,
  " problem": 2695,
  " problems": 2696,
  "ies": 2697,
  " butterflies": 2698,
  " side": 2699,
  " sidew": 2700,
  " sidewal": 2701,
  " sidewalk": 2702,
  " sidewalks": 2703,
  "ance": 2704,
  " bal": 2705,
  " balance": 2706,
  " shin": 2707,
  " shining": 2708,
  " gi": 2709,
  " giant": 2710,
  " giants": 2711,
  " cow": 2712,
  " cows": 2713,
  " att": 2714,
  " attic": 2715,
  " worried": 2716,
  " el": 2717,
  " else": 2718,
  " elsew": 2719,
  " elsewhe": 2720,
  " elsewhere": 2721,
  "ash": 2722,
  "quash": 2723,
  " squash": 2724,
  " pudd": 2725,
  " puddle": 2726,
  " At": 2727,
  " Att": 2728,
  " Attach": 2729,
  "While": 2730,
  " res": 2731,
  " respec": 2732,
  " respect": 2733,
  " respectful": 2734,
  "ord": 2735,
  " sword": 2736,
  " swords": 2737,
  " brown": 2738,
  "May": 2739,
  "Maybe": 2740,
  "ipp": 2741,
  "ipper": 2742,
  " zipper": 2743,
  "ence": 2744,
  " fence": 2745,
  " jar": 2746,
  " jars": 2747,
  " everything": 2748,
  "imi": 2749,
  " Mimi": 2750,
  " happen": 2751,
  " happening": 2752,
  "Fin": 2753,
  "Finally": 2754,
  "amp": 2755,
  " lamp": 2756,
  " lamps": 2757,
  " pet": 2758,
  " petal": 2759,
  " petals": 2760,
  " mud": 2761,
  " free": 2762,
  " freez": 2763,
  " freezer": 2764,
  " hig": 2765,
  " higher": 2766,
  "ake": 2767,
  " mist": 2768,
  " mistake": 2769,
  " Joe": 2770,
  " Joey": 2771,
  " yes": 2772,
  "rown": 2773,
  " crown": 2774,
  " crowns": 2775,
  " throw": 2776,
  " throwing": 2777,
  " laughing": 2778,
  " Em": 2779,
  " Emma": 2780,
  " smiles": 2781,
  "Amy": 2782,
  " doAmy": 2783,
  " fan": 2784,
  " fancy": 2785,
  "em": 2786,
  " gem": 2787,
  " gems": 2788,
  " closed": 2789,
  "ush": 2790,
  " brush": 2791,
  " Jen": 2792,
  " Jenny": 2793,
  " Z": 2794,
  " Zoom": 2795,
  " shop": 2796,
  " shopkeep": 2797,
  " shopkeeper": 2798,
  "ire": 2799,
  " wire": 2800,
  " wires": 2801,
  "ced": 2802,
  " raced": 2803,
  " strange": 2804,
  "ated": 2805,
  "rated": 2806,
  "ustrated": 2807,
  " frustrated": 2808,
  " Billy": 2809,
  " past": 2810,
  " pasta": 2811,
  "co": 2812,
  " disco": 2813,
  " discover": 2814,
  " discovered": 2815,
  " moved": 2816,
  " paw": 2817,
  " paws": 2818,
  " stand": 2819,
  " standing": 2820,
  "iver": 2821,
  " deliver": 2822,
  " delivered": 2823,
  " mother": 2824,
  " mothers": 2825,
  " mail": 2826,
  " mailbo": 2827,
  " mailbox": 2828,
  " mailboxes": 2829,
  " sail": 2830,
  " sailor": 2831,
  " sailors": 2832,
  " -": 2833,
  " --": 2834,
  " kite": 2835,
  "ella": 2836,
  " Bella": 2837,
  " egg": 2838,
  " eggs": 2839,
  " eggshe": 2840,
  " eggshell": 2841,
  "unch": 2842,
  " lunch": 2843,
  " lunchtim": 2844,
  " lunchtime": 2845,
  " Le": 2846,
  " Leo": 2847,
  "air": 2848,
  " stair": 2849,
  " stairs": 2850,
  " enough": 2851,
  " purp": 2852,
  " purple": 2853,
  " buck": 2854,
  " bucket": 2855,
  " buckets": 2856,
  " living": 2857,
  " livingro": 2858,
  " livingroom": 2859,
  " leave": 2860,
  "ove": 2861,
  " stove": 2862,
  "ugg": 2863,
  "rugg": 2864,
  " strugg": 2865,
  " struggle": 2866,
  " road": 2867,
  " roads": 2868,
  "fish": 2869,
  " sel": 2870,
  " selfish": 2871,
  " selfishness": 2872,
  "orm": 2873,
  "form": 2874,
  " per": 2875,
  " perform": 2876,
  " performed": 2877,
  " talking": 2878,
  " Ch": 2879,
  " Chir": 2880,
  " Chirp": 2881,
  " Chirpy": 2882,
  " comp": 2883,
  " compet": 2884,
  " competit": 2885,
  " competitive": 2886,
  " ve": 2887,
  " veget": 2888,
  " vegeta": 2889,
  " vegetables": 2890,
  " swings": 2891,
  " swingset": 2892,
  "ible": 2893,
  "cred": 2894,
  " incred": 2895,
  " incredible": 2896,
  " cro": 2897,
  " cross": 2898,
  " crossed": 2899,
  " mad": 2900,
  " finally": 2901,
  "set": 2902,
  " upset": 2903,
  " scream": 2904,
  " screamed": 2905,
  " push": 2906,
  " pushy": 2907,
  " runs": 2908,
  "used": 2909,
  "fused": 2910,
  " confused": 2911,
  " rolled": 2912,
  "gly": 2913,
  " ugly": 2914,
  "te": 2915,
  " plate": 2916,
  " bike": 2917,
  " wings": 2918,
  " lif": 2919,
  " lift": 2920,
  " lifts": 2921,
  "ased": 2922,
  " chased": 2923,
  " ph": 2924,
  " phone": 2925,
  "der": 2926,
  " ladder": 2927,
  "ards": 2928,
  " towards": 2929,
  " stre": 2930,
  " street": 2931,
  " streets": 2932,
  " sack": 2933,
  " sacks": 2934,
  " Some": 2935,
  " Sometimes": 2936,
  " stone": 2937,
  "mer": 2938,
  "mera": 2939,
  " camera": 2940,
  "!â": 2941,
  "!â.": 2942,
  "?!â.": 2943,
  "ogether": 2944,
  " Together": 2945,
  " Bl": 2946,
  " Blue": 2947,
  " Bluey": 2948,
  "ract": 2949,
  " pract": 2950,
  " practic": 2951,
  " practiced": 2952,
  " apples": 2953,
  "atter": 2954,
  " scatter": 2955,
  " scattered": 2956,
  " card": 2957,
  " cardboard": 2958,
  " coat": 2959,
  " coats": 2960,
  " wore": 2961,
  " fit": 2962,
  " fits": 2963,
  " pre": 2964,
  " pres": 2965,
  " present": 2966,
  " presents": 2967,
  " same": 2968,
  " tom": 2969,
  " tomor": 2970,
  " tomorrow": 2971,
  "ors": 2972,
  "issors": 2973,
  " scissors": 2974,
  " dropped": 2975,
  " corn": 2976,
  " corner": 2977,
  " kiss": 2978,
  " kissed": 2979,
  " sear": 2980,
  " searched": 2981,
  " roll": 2982,
  " rolling": 2983,
  " ben": 2984,
  " bench": 2985,
  " pers": 2986,
  " person": 2987,
  " personal": 2988,
  " personalit": 2989,
  " personality": 2990,
  " vill": 2991,
  " village": 2992,
  " min": 2993,
  " minut": 2994,
  " minutes": 2995,
  "here": 2996,
  "Where": 2997,
  "\n ": 2998,
  " \n ": 2999,
  " \n  ": 3000,
  "irt": 3001,
  " shirt": 3002,
  " shirts": 3003,
  " bring": 3004,
  " bringing": 3005,
  " forever": 3006,
  " foreverm": 3007,
  " forevermore": 3008,
  "to": 3009,
  " onto": 3010,
  " seed": 3011,
  " seeds": 3012,
  "ose": 3013,
  " Rose": 3014,
  "sw": 3015,
  " answ": 3016,
  " answer": 3017,
  " answering": 3018,
  " grew": 3019,
  " joy": 3020,
  " joyful": 3021,
  "thday": 3022,
  " bir": 3023,
  " birthday": 3024,
  " birthdays": 3025,
  " Whiskers": 3026,
  "rove": 3027,
  " drove": 3028,
  "ese": 3029,
  " cheese": 3030,
  " rob": 3031,
  " robot": 3032,
  " robots": 3033,
  "og": 3034,
  " yog": 3035,
  " yogurt": 3036,
  " yogurts": 3037,
  " pile": 3038,
  "'ll": 3039,
  " wand": 3040,
  " wander": 3041,
  " wandering": 3042,
  " mil": 3043,
  " milk": 3044,
  " milky": 3045,
  " eas": 3046,
  " easy": 3047,
  " Thank": 3048,
  " Thanks": 3049,
  " Thanksg": 3050,
  " Thanksgi": 3051,
  " Thanksgiving": 3052,
  "itch": 3053,
  " witch": 3054,
  "lder": 3055,
  " elder": 3056,
  " elderly": 3057,
  " ash": 3058,
  " asham": 3059,
  " ashamed": 3060,
  " bread": 3061,
  " breadst": 3062,
  " breadstick": 3063,
  " breadsticks": 3064,
  " ob": 3065,
  " obed": 3066,
  " obedient": 3067,
  " obediently": 3068,
  " nose": 3069,
  " wra": 3070,
  " wrap": 3071,
  " wraps": 3072,
  " cookie": 3073,
  " able": 3074,
  "ipped": 3075,
  " slipped": 3076,
  " most": 3077,
  " mostly": 3078,
  " juice": 3079,
  " bow": 3080,
  " bowed": 3081,
  " shy": 3082,
  " shyly": 3083,
  "vel": 3084,
  "velop": 3085,
  " envelop": 3086,
  " envelope": 3087,
  "ier": 3088,
  " sold": 3089,
  " soldier": 3090,
  "OK": 3091,
  " CO": 3092,
  " COOK": 3093,
  " COOKI": 3094,
  " COOKIE": 3095,
  " COOKIES": 3096,
  " belong": 3097,
  " belonged": 3098,
  " promise": 3099,
  " pill": 3100,
  " pillow": 3101,
  " pillows": 3102,
  "Jack": 3103,
  "Jackie": 3104,
  " few": 3105,
  " fewer": 3106,
  "vent": 3107,
  "ventu": 3108,
  "ventually": 3109,
  " eventually": 3110,
  "we": 3111,
  "weet": 3112,
  " Tweet": 3113,
  " Tweetie": 3114,
  " part": 3115,
  " parts": 3116,
  "sy": 3117,
  "umsy": 3118,
  " clumsy": 3119,
  " carry": 3120,
  " carrying": 3121,
  " dirt": 3122,
  " dirtied": 3123,
  " cal": 3124,
  " calm": 3125,
  " calmed": 3126,
  " touched": 3127,
  "igg": 3128,
  " gigg": 3129,
  " giggled": 3130,
  " note": 3131,
  " noteb": 3132,
  " notebook": 3133,
  " notebooks": 3134,
  " band": 3135,
  " bandage": 3136,
  "ale": 3137,
  " whale": 3138,
  " pea": 3139,
  " peace": 3140,
  " peaceful": 3141,
  " peacefulness": 3142,
  " shook": 3143,
  "mon": 3144,
  " lemon": 3145,
  " lemons": 3146,
  " storm": 3147,
  " storms": 3148,
  " balls": 3149,
  " young": 3150,
  " younger": 3151,
  " pop": 3152,
  " popc": 3153,
  " popcorn": 3154,
  "ined": 3155,
  " ruined": 3156,
  " sharp": 3157,
  " sharpen": 3158,
  " sharpening": 3159,
  "ird": 3160,
  " weird": 3161,
  " late": 3162,
  " taking": 3163,
  " neck": 3164,
  " neckl": 3165,
  " necklace": 3166,
  " coll": 3167,
  " collect": 3168,
  " collection": 3169,
  " collections": 3170,
  "ious": 3171,
  "xious": 3172,
  " anxious": 3173,
  " anxiously": 3174,
  " nut": 3175,
  " nuts": 3176,
  "ises": 3177,
  " noises": 3178,
  " busy": 3179,
  " amazed": 3180,
  "ung": 3181,
  " jung": 3182,
  " jungle": 3183,
  " inv": 3184,
  " invit": 3185,
  " invited": 3186,
  "urtle": 3187,
  " turtle": 3188,
  "ama": 3189,
  " Mama": 3190,
  "cks": 3191,
  " tricks": 3192,
  " wave": 3193,
  " ear": 3194,
  " earth": 3195,
  " earthqu": 3196,
  " earthquake": 3197,
  " feels": 3198,
  "ddy": 3199,
  " daddy": 3200,
  "ocket": 3201,
  " pocket": 3202,
  " pockets": 3203,
  " mod": 3204,
  " moder": 3205,
  " modern": 3206,
  " call": 3207,
  " calling": 3208,
  " live": 3209,
  " lively": 3210,
  "Good": 3211,
  "Goodby": 3212,
  "Goodbye": 3213,
  " Momo": 3214,
  " cover": 3215,
  " covered": 3216,
  " des": 3217,
  " desk": 3218,
  " desks": 3219,
  " huge": 3220,
  " coin": 3221,
  " mark": 3222,
  " market": 3223,
  " marketpl": 3224,
  " marketplace": 3225,
  "ummy": 3226,
  "Mummy": 3227,
  " wheel": 3228,
  " wheels": 3229,
  " pig": 3230,
  " pigs": 3231,
  " cir": 3232,
  " circle": 3233,
  " hon": 3234,
  " honest": 3235,
  " honesty": 3236,
  " gray": 3237,
  " honey": 3238,
  " honeyc": 3239,
  " honeycom": 3240,
  " honeycomb": 3241,
  " honeycombs": 3242,
  "erry": 3243,
  " Jerry": 3244,
  "unt": 3245,
  " aunt": 3246,
  " auntie": 3247,
  "ade": 3248,
  " parade": 3249,
  " path": 3250,
  " paths": 3251,
  "ail": 3252,
  " nail": 3253,
  " nails": 3254,
  " cloth": 3255,
  " cloths": 3256,
  "ost": 3257,
  "host": 3258,
  " ghost": 3259,
  " ghosts": 3260,
  "isa": 3261,
  " Lisa": 3262,
  "nn": 3263,
  " Ann": 3264,
  " Annie": 3265,
  "Be": 3266,
  "Before": 3267,
  "una": 3268,
  " Luna": 3269,
  " sal": 3270,
  " salad": 3271,
  " salads": 3272,
  " Mark": 3273,
  " meet": 3274,
  " meeting": 3275,
  " bell": 3276,
  " bells": 3277,
  " craw": 3278,
  " crawl": 3279,
  " crawling": 3280,
  " bone": 3281,
  " hugs": 3282,
  "Lila": 3283,
  "Lilah": 3284,
  " stars": 3285,
  "pt": 3286,
  " sle": 3287,
  " slept": 3288,
  " wide": 3289,
  "elly": 3290,
  " jelly": 3291,
  " jellyfish": 3292,
  " rocket": 3293,
  " rockets": 3294,
  " ban": 3295,
  " banan": 3296,
  " banana": 3297,
  "Of": 3298,
  " ce": 3299,
  " cele": 3300,
  " celeb": 3301,
  " celebrate": 3302,
  " hor": 3303,
  " horse": 3304,
  " Just": 3305,
  " seat": 3306,
  " seats": 3307,
  " wild": 3308,
  " wildf": 3309,
  " wildfl": 3310,
  " wildflow": 3311,
  " wildflowers": 3312,
  " smo": 3313,
  " smooth": 3314,
  " smoothly": 3315,
  " bre": 3316,
  " breath": 3317,
  " breaths": 3318,
  "lower": 3319,
  "flower": 3320,
  " sunflower": 3321,
  " moon": 3322,
  " moonl": 3323,
  " moonlight": 3324,
  " seek": 3325,
  " seeker": 3326,
  " cave": 3327,
  "Sure": 3328,
  " med": 3329,
  " medic": 3330,
  " medicine": 3331,
  " drive": 3332,
  " driveway": 3333,
  "ting": 3334,
  " letting": 3335,
  "rn": 3336,
  " warn": 3337,
  " warned": 3338,
  " On": 3339,
  " Only": 3340,
  "ert": 3341,
  " alert": 3342,
  " alertness": 3343,
  "ens": 3344,
  "ensive": 3345,
  " exp": 3346,
  " expensive": 3347,
  "oph": 3348,
  "ophie": 3349,
  " Sophie": 3350,
  " suddenly": 3351,
  "oppy": 3352,
  " Poppy": 3353,
  "ular": 3354,
  " popular": 3355,
  " val": 3356,
  " value": 3357,
  " roar": 3358,
  " roared": 3359,
  " lay": 3360,
  " laying": 3361,
  " sour": 3362,
  " source": 3363,
  "ina": 3364,
  " Tina": 3365,
  " life": 3366,
  " lifeg": 3367,
  " lifegu": 3368,
  " lifeguard": 3369,
  " sick": 3370,
  " sickness": 3371,
  "less": 3372,
  " harm": 3373,
  " harmless": 3374,
  " slid": 3375,
  " slides": 3376,
  " fle": 3377,
  " flex": 3378,
  " flexible": 3379,
  " N": 3380,
  " Ne": 3381,
  " Next": 3382,
  " wasn": 3383,
  " helpful": 3384,
  " helpfulness": 3385,
  "rank": 3386,
  " drank": 3387,
  " boss": 3388,
  " bossy": 3389,
  " rad": 3390,
  " radi": 3391,
  " radio": 3392,
  " step": 3393,
  " steps": 3394,
  " last": 3395,
  " lasted": 3396,
  " net": 3397,
  " netw": 3398,
  " networ": 3399,
  " network": 3400,
  " forget": 3401,
  " forgets": 3402,
  " oven": 3403,
  "ange": 3404,
  " change": 3405,
  "ery": 3406,
  "elery": 3407,
  " celery": 3408,
  " print": 3409,
  " prints": 3410,
  " pri": 3411,
  " prize": 3412,
  "sting": 3413,
  "eresting": 3414,
  " interesting": 3415,
  " act": 3416,
  " action": 3417,
  " actions": 3418,
  " di": 3419,
  " diam": 3420,
  " diamond": 3421,
  " diamonds": 3422,
  " organ": 3423,
  " organized": 3424,
  "bble": 3425,
  " pebble": 3426,
  " Be": 3427,
  " Bee": 3428,
  " Beef": 3429,
  "St": 3430,
  "Stop": 3431,
  "ize": 3432,
  " organize": 3433,
  " beak": 3434,
  " beaks": 3435,
  " taste": 3436,
  " nod": 3437,
  " nods": 3438,
  "ling": 3439,
  " whistling": 3440,
  " clever": 3441,
  " cleverness": 3442,
  " worm": 3443,
  " worms": 3444,
  " bought": 3445,
  "atch": 3446,
  " patch": 3447,
  " patchy": 3448,
  " ign": 3449,
  " igno": 3450,
  " ignoran": 3451,
  " ignorant": 3452,
  "ity": 3453,
  " city": 3454,
  " maybe": 3455,
  " foot": 3456,
  " footb": 3457,
  " football": 3458,
  " appear": 3459,
  " appeared": 3460,
  " hang": 3461,
  " hanging": 3462,
  "ward": 3463,
  " forward": 3464,
  "ike": 3465,
  "pike": 3466,
  " Spike": 3467,
  " chew": 3468,
  " chewed": 3469,
  " glow": 3470,
  " glowing": 3471,
  " hope": 3472,
  " hopeful": 3473,
  " compl": 3474,
  " complet": 3475,
  " complete": 3476,
  " av": 3477,
  " avoc": 3478,
  " avocad": 3479,
  " avocado": 3480,
  " takes": 3481,
  " stu": 3482,
  " study": 3483,
  " studying": 3484,
  " boot": 3485,
  " boots": 3486,
  " save": 3487,
  "ult": 3488,
  " diffic": 3489,
  " difficult": 3490,
  " difficulties": 3491,
  " mach": 3492,
  " machine": 3493,
  " shake": 3494,
  " gr": 3495,
  " group": 3496,
  " groups": 3497,
  "idy": 3498,
  " tidy": 3499,
  " tidying": 3500,
  " chick": 3501,
  " chicken": 3502,
  "ife": 3503,
  " knife": 3504,
  "let": 3505,
  " brace": 3506,
  " bracelet": 3507,
  " bracelets": 3508,
  " pan": 3509,
  " panic": 3510,
  " panicked": 3511,
  " Come": 3512,
  " Comet": 3513,
  " Comets": 3514,
  " rec": 3515,
  " record": 3516,
  " recorded": 3517,
  "ame": 3518,
  " frame": 3519,
  " anyone": 3520,
  " write": 3521,
  " ret": 3522,
  " return": 3523,
  " returned": 3524,
  " sheep": 3525,
  " sheepish": 3526,
  " sheepishly": 3527,
  "llo": 3528,
  " hello": 3529,
  " tie": 3530,
  " tieing": 3531,
  "den": 3532,
  " hidden": 3533,
  " spoil": 3534,
  " spoiled": 3535,
  " spin": 3536,
  " spinach": 3537,
  " line": 3538,
  " ring": 3539,
  " ringing": 3540,
  " waiting": 3541,
  " Cat": 3542,
  " Catty": 3543,
  " along": 3544,
  " alongside": 3545,
  "?â": 3546,
  "?â.": 3547,
  " later": 3548,
  " forgive": 3549,
  "andy": 3550,
  " Pandy": 3551,
  " drew": 3552,
  " spray": 3553,
  " sprayed": 3554,
  " finish": 3555,
  "unk": 3556,
  " trunk": 3557,
  " trunks": 3558,
  " stir": 3559,
  " stirred": 3560,
  " explor": 3561,
  " exploring": 3562,
  " tape": 3563,
  " zoo": 3564,
  " zookeep": 3565,
  " zookeeper": 3566,
  " hum": 3567,
  " humble": 3568,
  " saved": 3569,
  " With": 3570,
  " Without": 3571,
  "ained": 3572,
  " explained": 3573,
  "Sally": 3574,
  "pa": 3575,
  "randpa": 3576,
  " grandpa": 3577,
  "Come": 3578,
  "Comet": 3579,
  " ent": 3580,
  " enth": 3581,
  " enthus": 3582,
  " enthusi": 3583,
  " enthusiast": 3584,
  " enthusiastic": 3585,
  " enthusiastically": 3586,
  " prot": 3587,
  " protect": 3588,
  " protecting": 3589,
  " wondered": 3590,
  " mind": 3591,
  " minded": 3592,
  " Bunny": 3593,
  " es": 3594,
  " esc": 3595,
  " escap": 3596,
  " escape": 3597,
  "aw": 3598,
  "awn": 3599,
  " yawn": 3600,
  " yawned": 3601,
  " such": 3602,
  " supp": 3603,
  " support": 3604,
  " supporting": 3605,
  " TV": 3606,
  " TVs": 3607,
  " kick": 3608,
  " kicking": 3609,
  " stret": 3610,
  " stretch": 3611,
  " stretchy": 3612,
  " jumping": 3613,
  " pool": 3614,
  " cozy": 3615,
  "yard": 3616,
  " backyard": 3617,
  " though": 3618,
  " fake": 3619,
  "aff": 3620,
  " staff": 3621,
  " staffs": 3622,
  "olf": 3623,
  " wolf": 3624,
  "estion": 3625,
  " question": 3626,
  " questions": 3627,
  " team": 3628,
  " teamw": 3629,
  " teamwor": 3630,
  " teamwork": 3631,
  " pour": 3632,
  " poured": 3633,
  "Kit": 3634,
  "Kitty": 3635,
  " gently": 3636,
  " fing": 3637,
  " finger": 3638,
  " glass": 3639,
  " glasses": 3640,
  " pin": 3641,
  " pinch": 3642,
  " pinchy": 3643,
  " wom": 3644,
  " woman": 3645,
  " Ducky": 3646,
  " drum": 3647,
  " drums": 3648,
  " gather": 3649,
  " gathered": 3650,
  "eth": 3651,
  " teeth": 3652,
  " Their": 3653,
  " pack": 3654,
  " package": 3655,
  " gun": 3656,
  " guns": 3657,
  " Jim": 3658,
  " Jimmy": 3659,
  " sco": 3660,
  " scoot": 3661,
  " scooter": 3662,
  " spid": 3663,
  " spider": 3664,
  "elp": 3665,
  "Help": 3666,
  " nothing": 3667,
  " nothingness": 3668,
  " cr": 3669,
  " crack": 3670,
  " cracks": 3671,
  "rag": 3672,
  " frag": 3673,
  " fragile": 3674,
  " wing": 3675,
  " winged": 3676,
  " cri": 3677,
  " crib": 3678,
  " cart": 3679,
  " carts": 3680,
  " smelled": 3681,
  "erp": 3682,
  " caterp": 3683,
  " caterpill": 3684,
  " caterpillar": 3685,
  " caterpillars": 3686,
  "ey": 3687,
  " hock": 3688,
  " hockey": 3689,
  " lock": 3690,
  " locket": 3691,
  " places": 3692,
  " law": 3693,
  " lawy": 3694,
  " lawyer": 3695,
  "erv": 3696,
  " nerv": 3697,
  " nervous": 3698,
  " nervously": 3699,
  " Why": 3700,
  " sur": 3701,
  " surf": 3702,
  " surface": 3703,
  " imag": 3704,
  " imagine": 3705,
  "arm": 3706,
  "arming": 3707,
  " charming": 3708,
  " dish": 3709,
  " dishw": 3710,
  " dishwas": 3711,
  " dishwasher": 3712,
  " dishwashers": 3713,
  "izz": 3714,
  "izza": 3715,
  " pizza": 3716,
  " goes": 3717,
  " cage": 3718,
  "And": 3719,
  "Andy": 3720,
  " lar": 3721,
  " large": 3722,
  " true": 3723,
  "bb": 3724,
  " ribb": 3725,
  " ribbon": 3726,
  " ribbons": 3727,
  " trust": 3728,
  " trusted": 3729,
  "eter": 3730,
  " deter": 3731,
  " determ": 3732,
  " determined": 3733,
  " determinedly": 3734,
  "My": 3735,
  "Myst": 3736,
  "Mystery": 3737,
  " smiling": 3738,
  " smilingly": 3739,
  " carried": 3740,
  " If": 3741,
  " pointed": 3742,
  "ont": 3743,
  " front": 3744,
  " fil": 3745,
  " filthy": 3746,
  "lev": 3747,
  " elev": 3748,
  " elevat": 3749,
  " elevator": 3750,
  " loves": 3751,
  " feet": 3752,
  " af": 3753,
  " afra": 3754,
  " afraid": 3755,
  " year": 3756,
  " cher": 3757,
  " cherries": 3758,
  "ugar": 3759,
  " sugar": 3760,
  " van": 3761,
  " vanished": 3762,
  " match": 3763,
  " matchbo": 3764,
  " matchbox": 3765,
  "ich": 3766,
  " which": 3767,
  " gold": 3768,
  " golden": 3769,
  " clock": 3770,
  " clockw": 3771,
  " clockwise": 3772,
  " My": 3773,
  " Myst": 3774,
  " Mystery": 3775,
  " neigh": 3776,
  " neighb": 3777,
  " neighbor": 3778,
  " neighborh": 3779,
  " neighborhood": 3780,
  " Jill": 3781,
  " Jilli": 3782,
  " Jillian": 3783,
  " yelled": 3784,
  " class": 3785,
  " classro": 3786,
  " classroom": 3787,
  " classrooms": 3788,
  "ks": 3789,
  " barks": 3790,
  " reg": 3791,
  " regular": 3792,
  " regularly": 3793,
  "rink": 3794,
  " shrink": 3795,
  " shrinking": 3796,
  "ount": 3797,
  " mount": 3798,
  " mountain": 3799,
  " mountains": 3800,
  " sort": 3801,
  " sorting": 3802,
  " tries": 3803,
  " rich": 3804,
  " richness": 3805,
  " gate": 3806,
  " stra": 3807,
  " straw": 3808,
  " strawber": 3809,
  " strawberry": 3810,
  "opping": 3811,
  " hopping": 3812,
  " mir": 3813,
  " mirr": 3814,
  " mirror": 3815,
  " mirrored": 3816,
  " decor": 3817,
  " decorate": 3818,
  " joke": 3819,
  " glue": 3820,
  "icked": 3821,
  " kicked": 3822,
  " sol": 3823,
  " solve": 3824,
  "urse": 3825,
  " nurse": 3826,
  " prince": 3827,
  " dancing": 3828,
  "ones": 3829,
  " stones": 3830,
  " dig": 3831,
  " digs": 3832,
  " icy": 3833,
  " these": 3834,
  " goat": 3835,
  " goats": 3836,
  " splashed": 3837,
  " towel": 3838,
  " towels": 3839,
  " daught": 3840,
  " daughter": 3841,
  " lazy": 3842,
  "ee": 3843,
  "See": 3844,
  "Seeing": 3845,
  " flag": 3846,
  " flags": 3847,
  " pray": 3848,
  " prayed": 3849,
  " couch": 3850,
  " dist": 3851,
  " distur": 3852,
  " disturb": 3853,
  " disturbed": 3854,
  "ique": 3855,
  " unique": 3856,
  " gas": 3857,
  " gasp": 3858,
  " gasped": 3859,
  " clear": 3860,
  " clearing": 3861,
  " scarf": 3862,
  " scarfs": 3863,
  " norm": 3864,
  " normal": 3865,
  "any": 3866,
  " Many": 3867,
  " moms": 3868,
  " pay": 3869,
  " paying": 3870,
  " gen": 3871,
  " gener": 3872,
  " generous": 3873,
  " generously": 3874,
  "umb": 3875,
  " numb": 3876,
  " numbers": 3877,
  " painted": 3878,
  "isp": 3879,
  " whisp": 3880,
  " whispered": 3881,
  " hero": 3882,
  " heroes": 3883,
  " mot": 3884,
  " motor": 3885,
  " motorcycle": 3886,
  " stood": 3887,
  "upid": 3888,
  " stupid": 3889,
  " stupidly": 3890,
  "ano": 3891,
  " piano": 3892,
  " Bobby": 3893,
  " rare": 3894,
  " rarely": 3895,
  " jam": 3896,
  " jamm": 3897,
  " jammed": 3898,
  " Please": 3899,
  " wis": 3900,
  " wishes": 3901,
  " saf": 3902,
  " safely": 3903,
  " ap": 3904,
  " apr": 3905,
  " apron": 3906,
  " aprons": 3907,
  " poor": 3908,
  " hur": 3909,
  " hurry": 3910,
  " hurrying": 3911,
  "Dad": 3912,
  "Daddy": 3913,
  " How": 3914,
  " Howe": 3915,
  " However": 3916,
  " ship": 3917,
  " ships": 3918,
  " bake": 3919,
  " fear": 3920,
  " fearful": 3921,
  " fis": 3922,
  " fishe": 3923,
  " fisherm": 3924,
  " fisherman": 3925,
  " Don": 3926,
  " Donkey": 3927,
  " closet": 3928,
  " closets": 3929,
  "uce": 3930,
  " sauce": 3931,
  " saucep": 3932,
  " saucepan": 3933,
  " clay": 3934,
  "ised": 3935,
  " realised": 3936,
  " dest": 3937,
  " destro": 3938,
  " destroy": 3939,
  " destroyed": 3940,
  "ato": 3941,
  " tomato": 3942,
  " tomatoes": 3943,
  " goose": 3944,
  " lead": 3945,
  " leader": 3946,
  " feed": 3947,
  " feeding": 3948,
  " har": 3949,
  " harsh": 3950,
  " harshly": 3951,
  "aser": 3952,
  " er": 3953,
  " eraser": 3954,
  " Tiny": 3955,
  " clap": 3956,
  " claps": 3957,
  " noisy": 3958,
  " anc": 3959,
  " ancient": 3960,
  " 3": 3961,
  " 30": 3962,
  "ube": 3963,
  " cube": 3964,
  "erri": 3965,
  " terri": 3966,
  " terrible": 3967,
  " measure": 3968,
  " measures": 3969,
  " jeep": 3970,
  " jeeps": 3971,
  " burn": 3972,
  " burned": 3973,
  " soap": 3974,
  " soapy": 3975,
  "enny": 3976,
  " Penny": 3977,
  "gin": 3978,
  "rigin": 3979,
  "riginal": 3980,
  " original": 3981,
  " deer": 3982,
  "kn": 3983,
  " unkn": 3984,
  " unknown": 3985,
  " fright": 3986,
  " frightened": 3987,
  "ual": 3988,
  "usual": 3989,
  " unusual": 3990,
  " Bear": 3991,
  " test": 3992,
  " tested": 3993,
  "rue": 3994,
  " True": 3995,
  "elon": 3996,
  " melon": 3997,
  " melons": 3998,
  " barn": 3999,
  " sock": 4000,
  " spread": 4001,
  " spreading": 4002,
  " branches": 4003,
  "inning": 4004,
  " spinning": 4005,
  "gu": 4006,
  " pengu": 4007,
  " penguin": 4008,
  " thick": 4009,
  " thicker": 4010,
  " blow": 4011,
  " blowing": 4012,
  " bitter": 4013,
  " bitterness": 4014,
  " rough": 4015,
  " roughh": 4016,
  " roughhous": 4017,
  " roughhousing": 4018,
  " map": 4019,
  " maps": 4020,
  " chase": 4021,
  " tent": 4022,
  " tenta": 4023,
  " tentac": 4024,
  " tentacles": 4025,
  " shad": 4026,
  " shadow": 4027,
  " shadows": 4028,
  " swan": 4029,
  " swans": 4030,
  " adm": 4031,
  " admire": 4032,
  " shark": 4033,
  " tasted": 4034,
  " asleep": 4035,
  " mas": 4036,
  " mask": 4037,
  " lab": 4038,
  " label": 4039,
  " labels": 4040,
  " prun": 4041,
  " prunes": 4042,
  " understood": 4043,
  "ittle": 4044,
  " Little": 4045,
  " pee": 4046,
  " peeked": 4047,
  " dug": 4048,
  " pepp": 4049,
  " pepper": 4050,
  " pepperon": 4051,
  " pepperoni": 4052,
  "owed": 4053,
  " allowed": 4054,
  " become": 4055,
  " becomes": 4056,
  " muff": 4057,
  " muffin": 4058,
  " dep": 4059,
  " depend": 4060,
  " dependable": 4061,
  " scare": 4062,
  " scares": 4063,
  " cap": 4064,
  " caps": 4065,
  " dead": 4066,
  " parrot": 4067,
  " parrots": 4068,
  "oday": 4069,
  " Today": 4070,
  " pump": 4071,
  " pumpk": 4072,
  " pumpkin": 4073,
  " dull": 4074,
  " tig": 4075,
  " tiger": 4076,
  " fier": 4077,
  " fierce": 4078,
  "reen": 4079,
  " screen": 4080,
  " famous": 4081,
  " stuff": 4082,
  " stuffed": 4083,
  " taught": 4084,
  " spring": 4085,
  " springing": 4086,
  "ighed": 4087,
  " sighed": 4088,
  " asking": 4089,
  " drop": 4090,
  " drops": 4091,
  "az": 4092,
  " magaz": 4093,
  " magazine": 4094,
  " sell": 4095,
  " selling": 4096,
  " fool": 4097,
  " foolish": 4098,
  " foolishness": 4099,
  " jeal": 4100,
  " jealous": 4101,
  " jealousy": 4102,
  " shoe": 4103,
  " shoebo": 4104,
  " shoebox": 4105,
  " bloom": 4106,
  " bloomed": 4107,
  " rug": 4108,
  " rugs": 4109,
  " stri": 4110,
  " strip": 4111,
  " strips": 4112,
  " ref": 4113,
  " refri": 4114,
  " refriger": 4115,
  " refrigerat": 4116,
  " refrigerator": 4117,
  " sque": 4118,
  " squeeze": 4119,
  "com": 4120,
  "comfortable": 4121,
  " uncomfortable": 4122,
  " eng": 4123,
  " engine": 4124,
  " engineer": 4125,
  "ormous": 4126,
  " enormous": 4127,
  " acorn": 4128,
  " acorns": 4129,
  " '": 4130,
  " ''": 4131,
  " hol": 4132,
  " holes": 4133,
  " disg": 4134,
  " disgust": 4135,
  " disgusting": 4136,
  " bott": 4137,
  " bottom": 4138,
  " bottoms": 4139,
  " horn": 4140,
  " horns": 4141,
  " clown": 4142,
  " clowns": 4143,
  " bald": 4144,
  "erve": 4145,
  " serve": 4146,
  " St": 4147,
  " Star": 4148,
  " Starry": 4149,
  " toast": 4150,
  " toaster": 4151,
  "pping": 4152,
  "apping": 4153,
  " clapping": 4154,
  "angle": 4155,
  " triangle": 4156,
  "Timmy": 4157,
  "ges": 4158,
  " pages": 4159,
  " relax": 4160,
  " relaxed": 4161,
  "Here": 4162,
  " steak": 4163,
  " steaks": 4164,
  " add": 4165,
  " adding": 4166,
  " twist": 4167,
  " twisting": 4168,
  " Pe": 4169,
  " Peop": 4170,
  " People": 4171,
  " wagon": 4172,
  " vase": 4173,
  " thin": 4174,
  "ment": 4175,
  "quip": 4176,
  "quipment": 4177,
  " equipment": 4178,
  " chest": 4179,
  " chests": 4180,
  " mic": 4181,
  " micr": 4182,
  " microph": 4183,
  " microphone": 4184,
  "cc": 4185,
  "ccol": 4186,
  "ccoli": 4187,
  " broccoli": 4188,
  " flut": 4189,
  " flute": 4190,
  " steal": 4191,
  " stealing": 4192,
  " fold": 4193,
  " folded": 4194,
  " stubb": 4195,
  " stubborn": 4196,
  " stubbornness": 4197,
  " oce": 4198,
  " ocean": 4199,
  " oceans": 4200,
  "arn": 4201,
  " yarn": 4202,
  " yarns": 4203,
  " tool": 4204,
  " tools": 4205,
  " moving": 4206,
  " rose": 4207,
  " guess": 4208,
  " guessed": 4209,
  " mov": 4210,
  " movie": 4211,
  "cing": 4212,
  " bouncing": 4213,
  "Together": 4214,
  "ume": 4215,
  " cost": 4216,
  " costume": 4217,
  "Molly": 4218,
  " Instead": 4219,
  " rat": 4220,
  " rats": 4221,
  " hears": 4222,
  "opard": 4223,
  " leopard": 4224,
  " tun": 4225,
  " tunn": 4226,
  " tunnel": 4227,
  " tunnels": 4228,
  " bored": 4229,
  " boredom": 4230,
  " mis": 4231,
  " miser": 4232,
  " miserable": 4233,
  " suit": 4234,
  " suits": 4235,
  " lose": 4236,
  "iant": 4237,
  "lliant": 4238,
  " brilliant": 4239,
  " brilliantly": 4240,
  " wake": 4241,
  " police": 4242,
  " policem": 4243,
  " policeman": 4244,
  " bean": 4245,
  " beans": 4246,
  " Rex": 4247,
  " fat": 4248,
  " track": 4249,
  " tracks": 4250,
  " To": 4251,
  " Toy": 4252,
  " Toys": 4253,
  " tough": 4254,
  " inde": 4255,
  " indep": 4256,
  " independ": 4257,
  " independent": 4258,
  " seal": 4259,
  " seals": 4260,
  " hoop": 4261,
  " hoops": 4262,
  " Al": 4263,
  " Alice": 4264,
  "llie": 4265,
  " Ellie": 4266,
  " Go": 4267,
  " Gold": 4268,
  " Goldy": 4269,
  " wheat": 4270,
  " wheats": 4271,
  " fine": 4272,
  " knee": 4273,
  " exam": 4274,
  " examine": 4275,
  " Will": 4276,
  " Willi": 4277,
  " William": 4278,
  " waff": 4279,
  " waffle": 4280,
  "irsty": 4281,
  " thirsty": 4282,
  " crazy": 4283,
  " body": 4284,
  "ident": 4285,
  " acc": 4286,
  " accident": 4287,
  " accidentally": 4288,
  " jet": 4289,
  " jets": 4290,
  "oto": 4291,
  " photo": 4292,
  " soar": 4293,
  " soared": 4294,
  " behave": 4295,
  " stat": 4296,
  " statue": 4297,
  " frown": 4298,
  " frowned": 4299,
  " unl": 4300,
  " unlock": 4301,
  " unlocking": 4302,
  " ber": 4303,
  " berries": 4304,
  " Sp": 4305,
  " Spark": 4306,
  " Sparky": 4307,
  "dle": 4308,
  " mid": 4309,
  " middle": 4310,
  " pant": 4311,
  " pants": 4312,
  " scr": 4313,
  " scrat": 4314,
  " scratched": 4315,
  "Sorry": 4316,
  " wrot": 4317,
  " wrote": 4318,
  " log": 4319,
  " logs": 4320,
  " pir": 4321,
  " pirate": 4322,
  " tick": 4323,
  " ticket": 4324,
  " tickets": 4325,
  " exciting": 4326,
  " delicate": 4327,
  "reless": 4328,
  " careless": 4329,
  " carelessness": 4330,
  "iness": 4331,
  " happiness": 4332,
  " bul": 4333,
  " bulb": 4334,
  " bulbs": 4335,
  " trump": 4336,
  " trumpet": 4337,
  " trumpets": 4338,
  " tied": 4339,
  " stran": 4340,
  " stranger": 4341,
  "eaf": 4342,
  " deaf": 4343,
  " deafness": 4344,
  "ken": 4345,
  " taken": 4346,
  " press": 4347,
  " pressed": 4348,
  "arl": 4349,
  " Carl": 4350,
  " Carlos": 4351,
  " pal": 4352,
  " palace": 4353,
  "ti": 4354,
  "aghe": 4355,
  "aghet": 4356,
  "aghetti": 4357,
  " spaghetti": 4358,
  " remind": 4359,
  " reminded": 4360,
  " hay": 4361,
  " hayst": 4362,
  " haystack": 4363,
  " cheap": 4364,
  " cheapest": 4365,
  "Are": 4366,
  "Aren": 4367,
  "How": 4368,
  "Howe": 4369,
  "However": 4370,
  " spent": 4371,
  " washed": 4372,
  " shoot": 4373,
  " shooting": 4374,
  "ours": 4375,
  " hours": 4376,
  " lifted": 4377,
  " barber": 4378,
  "iv": 4379,
  " fest": 4380,
  " festiv": 4381,
  " festival": 4382,
  " festivals": 4383,
  "ying": 4384,
  " lying": 4385,
  "yal": 4386,
  " loyal": 4387,
  " loyalty": 4388,
  " cats": 4389,
  " temp": 4390,
  " temple": 4391,
  " heal": 4392,
  " healed": 4393,
  " While": 4394,
  " comb": 4395,
  " combed": 4396,
  " sil": 4397,
  " silver": 4398,
  " cop": 4399,
  " copy": 4400,
  "br": 4401,
  "brary": 4402,
  " library": 4403,
  " jog": 4404,
  " jogs": 4405,
  " U": 4406,
  " Und": 4407,
  " Under": 4408,
  " Underne": 4409,
  " Underneath": 4410,
  " rh": 4411,
  " rhin": 4412,
  " rhinoc": 4413,
  " rhinocer": 4414,
  " rhinoceros": 4415,
  " rhinoceroses": 4416,
  " bat": 4417,
  " bathe": 4418,
  " umb": 4419,
  " umbre": 4420,
  " umbrella": 4421,
  "ope": 4422,
  "cope": 4423,
  "ros": 4424,
  "roscope": 4425,
  " microscope": 4426,
  " inc": 4427,
  " incl": 4428,
  " inclu": 4429,
  " include": 4430,
  " mill": 4431,
  " miller": 4432,
  "par": 4433,
  " separ": 4434,
  " separate": 4435,
  "cream": 4436,
  "creams": 4437,
  "itten": 4438,
  " mitten": 4439,
  " mittens": 4440,
  " Bu": 4441,
  " Buz": 4442,
  " Buzzy": 4443,
  " waves": 4444,
  " hose": 4445,
  " trick": 4446,
  " tricky": 4447,
  " jolly": 4448,
  "ground": 4449,
  " playground": 4450,
  " playgrounds": 4451,
  " Brown": 4452,
  " Brownie": 4453,
  "nic": 4454,
  " picnic": 4455,
  " picnics": 4456,
  "shine": 4457,
  " sunshine": 4458,
  " Even": 4459,
  "iable": 4460,
  " reliable": 4461,
  " fig": 4462,
  " figure": 4463,
  " figures": 4464,
  "most": 4465,
  " almost": 4466,
  " cab": 4467,
  " cabin": 4468,
  " cabinet": 4469,
  " cabinets": 4470,
  " playful": 4471,
  "llip": 4472,
  "llipop": 4473,
  " lollipop": 4474,
  " lollipops": 4475,
  " shade": 4476,
  " cheerful": 4477,
  " cheerfulness": 4478,
  " adventur": 4479,
  " adventurous": 4480,
  " adventurousness": 4481,
  "geon": 4482,
  " pigeon": 4483,
  " pigeons": 4484,
  " cries": 4485,
  " penny": 4486,
  " tag": 4487,
  " tags": 4488,
  "Who": 4489,
  "Whoa": 4490,
  " tap": 4491,
  " taped": 4492,
  "light": 4493,
  " flash": 4494,
  " flashlight": 4495,
  " flashlights": 4496,
  "If": 4497,
  " creature": 4498,
  " creatures": 4499,
  "where": 4500,
  " anywhere": 4501,
  " post": 4502,
  " poster": 4503,
  "appy": 4504,
  "happy": 4505,
  " unhappy": 4506,
  "ball": 4507,
  " base": 4508,
  " baseball": 4509,
  " baseballs": 4510,
  " needs": 4511,
  "urkey": 4512,
  " turkey": 4513,
  " turkeys": 4514,
  " arrow": 4515,
  " arrows": 4516,
  " bees": 4517,
  "cles": 4518,
  " circles": 4519,
  " Emily": 4520,
  " cush": 4521,
  " cushion": 4522,
  " cushions": 4523,
  " search": 4524,
  "ez": 4525,
  "ezed": 4526,
  " sneezed": 4527,
  "Me": 4528,
  "Meow": 4529,
  " stack": 4530,
  " stacking": 4531,
  " spi": 4532,
  " spirit": 4533,
  " spirits": 4534,
  " melt": 4535,
  " melted": 4536,
  "net": 4537,
  " magnet": 4538,
  " magnets": 4539,
  " low": 4540,
  " lowered": 4541,
  " zip": 4542,
  " zips": 4543,
  "alk": 4544,
  " chalk": 4545,
  " dove": 4546,
  " pear": 4547,
  " pearl": 4548,
  " pearls": 4549,
  " shiver": 4550,
  " shivering": 4551,
  " cone": 4552,
  " troubled": 4553,
  "cod": 4554,
  " crocod": 4555,
  " crocodile": 4556,
  " roof": 4557,
  " roofs": 4558,
  " maze": 4559,
  " carp": 4560,
  " carpet": 4561,
  " carpets": 4562,
  " stamp": 4563,
  " stamps": 4564,
  "met": 4565,
  " helmet": 4566,
  " helmets": 4567,
  "inary": 4568,
  " ordinary": 4569,
  " env": 4570,
  " envious": 4571,
  " shore": 4572,
  " shorel": 4573,
  " shoreline": 4574,
  " using": 4575,
  "Their": 4576,
  " send": 4577,
  " sending": 4578,
  " built": 4579,
  " borrow": 4580,
  " borrowed": 4581,
  " belt": 4582,
  " belts": 4583,
  " four": 4584,
  " Sunny": 4585,
  " nosy": 4586,
  " serious": 4587,
  " seriously": 4588,
  "seum": 4589,
  " museum": 4590,
  " museums": 4591,
  " stage": 4592,
  " guil": 4593,
  " guilty": 4594,
  " vine": 4595,
  " vineg": 4596,
  " vinegar": 4597,
  " scale": 4598,
  " shows": 4599,
  " mop": 4600,
  " mops": 4601,
  " coco": 4602,
  " cocoa": 4603,
  "ft": 4604,
  " raft": 4605,
  " valu": 4606,
  " valuable": 4607,
  "Jane": 4608,
  "Janey": 4609,
  " Miss": 4610,
  " Missile": 4611,
  " jack": 4612,
  " jacket": 4613,
  " jackets": 4614,
  " crawled": 4615,
  " quar": 4616,
  " quarrel": 4617,
  " quarreling": 4618,
  " board": 4619,
  " boarded": 4620,
  " rep": 4621,
  " repair": 4622,
  " repairs": 4623,
  " gets": 4624,
  " wealthy": 4625,
  " mule": 4626,
  "ulu": 4627,
  " Lulu": 4628,
  " times": 4629,
  " answered": 4630,
  " liz": 4631,
  " lizard": 4632,
  "edy": 4633,
  "peedy": 4634,
  " Speedy": 4635,
  "ctop": 4636,
  "ctopus": 4637,
  " octopus": 4638,
  " octopuses": 4639,
  " tank": 4640,
  " tanks": 4641,
  " sailed": 4642,
  " pow": 4643,
  " powder": 4644,
  " powdery": 4645,
  " create": 4646,
  " shine": 4647,
  " fluffy": 4648,
  "ither": 4649,
  " either": 4650,
  "inky": 4651,
  " Binky": 4652,
  " attract": 4653,
  " attractive": 4654,
  "lph": 4655,
  " dolph": 4656,
  " dolphin": 4657,
  " lean": 4658,
  " leaned": 4659,
  "Go": 4660,
  "Goal": 4661,
  "xy": 4662,
  "xyg": 4663,
  "xygen": 4664,
  " oxygen": 4665,
  " gar": 4666,
  " garage": 4667,
  " stream": 4668,
  " streamers": 4669,
  "Mum": 4670,
  " peach": 4671,
  "Mama": 4672,
  " persist": 4673,
  " persistent": 4674,
  " ham": 4675,
  " hammer": 4676,
  " cleaning": 4677,
  "pack": 4678,
  " unpack": 4679,
  " unpacking": 4680,
  "There": 4681,
  "rant": 4682,
  " restau": 4683,
  " restaurant": 4684,
  " raven": 4685,
  " ravens": 4686,
  "rimp": 4687,
  " shrimp": 4688,
  " shrimps": 4689,
  " sink": 4690,
  " sinking": 4691,
  " ang": 4692,
  " angel": 4693,
  " angels": 4694,
  " cact": 4695,
  " cactus": 4696,
  " half": 4697,
  " halfway": 4698,
  " impatient": 4699,
  " impatiently": 4700,
  " spe": 4701,
  " speed": 4702,
  " speeding": 4703,
  " Sh": 4704,
  " Shar": 4705,
  " Sharing": 4706,
  "oby": 4707,
  " Toby": 4708,
  " wool": 4709,
  " intell": 4710,
  " intellig": 4711,
  " intelligent": 4712,
  "azz": 4713,
  " Jazz": 4714,
  " jug": 4715,
  " jugs": 4716,
  " chub": 4717,
  " chubby": 4718,
  " sung": 4719,
  " sungl": 4720,
  " sunglass": 4721,
  " sunglasses": 4722,
  " wrapped": 4723,
  "sp": 4724,
  " hosp": 4725,
  " hospit": 4726,
  " hospital": 4727,
  " saying": 4728,
  "assion": 4729,
  " compassion": 4730,
  " compassionate": 4731,
  "ouses": 4732,
  " houses": 4733,
  " Rob": 4734,
  " Robby": 4735,
  " load": 4736,
  " loaded": 4737,
  " cere": 4738,
  " cereal": 4739,
  " cereals": 4740,
  " licked": 4741,
  "essie": 4742,
  " Bessie": 4743,
  " uncle": 4744,
  " helps": 4745,
  " smoke": 4746,
  " design": 4747,
  " designed": 4748,
  " pil": 4749,
  " pilot": 4750,
  " pilots": 4751,
  " twig": 4752,
  " twigs": 4753,
  " chess": 4754,
  " chessboard": 4755,
  " bump": 4756,
  " bumped": 4757,
  " spill": 4758,
  " spilled": 4759,
  " split": 4760,
  " splitting": 4761,
  "ict": 4762,
  "iction": 4763,
  "ictionary": 4764,
  " dictionary": 4765,
  " walks": 4766,
  "esday": 4767,
  "edn": 4768,
  "ednesday": 4769,
  " Wednesday": 4770,
  " Wednesdays": 4771,
  "oon": 4772,
  "poon": 4773,
  " teas": 4774,
  " teaspoon": 4775,
  " teaspoons": 4776,
  " decide": 4777,
  " giving": 4778,
  " ot": 4779,
  " otter": 4780,
  " otters": 4781,
  " guard": 4782,
  " guardi": 4783,
  " guardian": 4784,
  " guardians": 4785,
  "adow": 4786,
  " meadow": 4787,
  " meadows": 4788,
  "ement": 4789,
  " excitement": 4790,
  "ody": 4791,
  "body": 4792,
  " nobody": 4793,
  " acce": 4794,
  " accept": 4795,
  " accepting": 4796,
  "anut": 4797,
  " peanut": 4798,
  " peanuts": 4799,
  " mole": 4800,
  " molec": 4801,
  " molecu": 4802,
  " molecule": 4803,
  " por": 4804,
  " porch": 4805,
  " dough": 4806,
  " oper": 4807,
  " opera": 4808,
  " locked": 4809,
  " delight": 4810,
  " delighted": 4811,
  " delightedly": 4812,
  " bounced": 4813,
  " comet": 4814,
  " comets": 4815,
  " forth": 4816,
  " forthcom": 4817,
  " forthcoming": 4818,
  "rage": 4819,
  " courage": 4820,
  " courageous": 4821,
  "Billy": 4822,
  " shield": 4823,
  " shields": 4824,
  " aut": 4825,
  " autom": 4826,
  " automob": 4827,
  " automobile": 4828,
  " fount": 4829,
  " fountain": 4830,
  " showing": 4831,
  " poem": 4832,
  " poems": 4833,
  " case": 4834,
  " rul": 4835,
  " rules": 4836,
  " learning": 4837,
  " folder": 4838,
  "oin": 4839,
  " disappoin": 4840,
  " disappointed": 4841,
  " sniff": 4842,
  " sniffed": 4843,
  " sleeping": 4844,
  " teleph": 4845,
  " telephone": 4846,
  " meal": 4847,
  " meals": 4848,
  "ision": 4849,
  "levision": 4850,
  " television": 4851,
  "Re": 4852,
  "Remy": 4853,
  " collar": 4854,
  " collars": 4855,
  "ony": 4856,
  " pony": 4857,
  " ponyt": 4858,
  " ponytail": 4859,
  " jok": 4860,
  " jokes": 4861,
  "ject": 4862,
  " object": 4863,
  " objects": 4864,
  " fridge": 4865,
  " ador": 4866,
  " adorable": 4867,
  " club": 4868,
  " clubs": 4869,
  " tire": 4870,
  " tires": 4871,
  "cut": 4872,
  " haircut": 4873,
  " haircuts": 4874,
  " batter": 4875,
  " battery": 4876,
  "offe": 4877,
  "offee": 4878,
  " coffee": 4879,
  " father": 4880,
  " ed": 4881,
  " edge": 4882,
  " needle": 4883,
  " helpless": 4884,
  " helplessly": 4885,
  " bubble": 4886,
  " bubbleg": 4887,
  " bubblegum": 4888,
  " grace": 4889,
  " graceful": 4890,
  " gracefulness": 4891,
  " Buzz": 4892,
  " barrel": 4893,
  " barrels": 4894,
  " str": 4895,
  " stru": 4896,
  " struc": 4897,
  " structure": 4898,
  " structures": 4899,
  " spun": 4900,
  " amb": 4901,
  " ambul": 4902,
  " ambulance": 4903,
  " medal": 4904,
  " medals": 4905,
  " gifted": 4906,
  " cryst": 4907,
  " crystal": 4908,
  " crystals": 4909,
  " knot": 4910,
  " knots": 4911,
  " bull": 4912,
  " bully": 4913,
  "room": 4914,
  " vroom": 4915,
  " tear": 4916,
  " tearing": 4917,
  " spend": 4918,
  " spending": 4919,
  " grapes": 4920,
  "live": 4921,
  " Olive": 4922,
  " knight": 4923,
  " knights": 4924,
  " rag": 4925,
  " rags": 4926,
  " judge": 4927,
  " judgement": 4928,
  "ief": 4929,
  " thief": 4930,
  " rub": 4931,
  " rubs": 4932,
  " enc": 4933,
  " encou": 4934,
  " encourag": 4935,
  " encouraged": 4936,
  " yet": 4937,
  " trap": 4938,
  " traps": 4939,
  " Jake": 4940,
  " coins": 4941,
  " saus": 4942,
  " sausage": 4943,
  " loudly": 4944,
  "uth": 4945,
  " truth": 4946,
  " truthful": 4947,
  " cooked": 4948,
  " inse": 4949,
  " insect": 4950,
  " insects": 4951,
  "iew": 4952,
  " view": 4953,
  " views": 4954,
  "isted": 4955,
  " ins": 4956,
  " insisted": 4957,
  " comput": 4958,
  " computer": 4959,
  " counting": 4960,
  "ye": 4961,
  "Bye": 4962,
  " pun": 4963,
  " punish": 4964,
  " punishment": 4965,
  " tears": 4966,
  " bin": 4967,
  " binoc": 4968,
  " binocular": 4969,
  " binoculars": 4970,
  "sed": 4971,
  " pau": 4972,
  " paused": 4973,
  " float": 4974,
  " floating": 4975,
  " handle": 4976,
  " handleb": 4977,
  " handlebar": 4978,
  " handlebars": 4979,
  " radish": 4980,
  " vide": 4981,
  " video": 4982,
  " skull": 4983,
  " skulls": 4984,
  " sweater": 4985,
  "iron": 4986,
  " iron": 4987,
  " ironing": 4988,
  "Jim": 4989,
  "Jimmy": 4990,
  " flea": 4991,
  " mild": 4992,
  " milder": 4993,
  "Fluffy": 4994,
  " towers": 4995,
  "port": 4996,
  " passport": 4997,
  " passports": 4998,
  " Sn": 4999,
  " Snow": 5000,
  " Snowy": 5001,
  "ulif": 5002,
  " caulif": 5003,
  " cauliflower": 5004,
  " agree": 5005,
  " agreement": 5006,
  " rode": 5007,
  " quit": 5008,
  " quitter": 5009,
  " cob": 5010,
  " cobwe": 5011,
  " cobweb": 5012,
  " cobwebs": 5013,
  "Give": 5014,
  "iraff": 5015,
  " giraff": 5016,
  " giraffe": 5017,
  " skin": 5018,
  " skinny": 5019,
  " led": 5020,
  " ledge": 5021,
  " biggest": 5022,
  "cket": 5023,
  " cricket": 5024,
  " crickets": 5025,
  " Bir": 5026,
  " Birdy": 5027,
  " aer": 5028,
  " aerop": 5029,
  " aeropl": 5030,
  " aeroplane": 5031,
  " bushes": 5032,
  " speak": 5033,
  " speaker": 5034,
  " thunder": 5035,
  " thunderc": 5036,
  " thundercl": 5037,
  " thundercloud": 5038,
  " thunderclouds": 5039,
  " distant": 5040,
  " rod": 5041,
  " rods": 5042,
  "ito": 5043,
  "quito": 5044,
  " mos": 5045,
  " mosquito": 5046,
  " mosquitoes": 5047,
  " patter": 5048,
  " pattern": 5049,
  " patterns": 5050,
  " chain": 5051,
  " chains": 5052,
  " pale": 5053,
  "uring": 5054,
  " during": 5055,
  " bark": 5056,
  " shape": 5057,
  " added": 5058,
  " spell": 5059,
  " spells": 5060,
  " shut": 5061,
  " shutting": 5062,
  " repe": 5063,
  " repeat": 5064,
  " repeating": 5065,
  " means": 5066,
  "aged": 5067,
  " managed": 5068,
  " pole": 5069,
  " oat": 5070,
  " oats": 5071,
  " grown": 5072,
  " grownup": 5073,
  " grownups": 5074,
  " drawer": 5075,
  "rian": 5076,
  "eterina": 5077,
  "eterinarian": 5078,
  " veterinarian": 5079,
  " veterinarians": 5080,
  "rewor": 5081,
  " firewor": 5082,
  " firework": 5083,
  " rid": 5084,
  " riding": 5085,
  "akes": 5086,
  " mistakes": 5087,
  " short": 5088,
  " shorts": 5089,
  " dive": 5090,
  "ipe": 5091,
  " pipe": 5092,
  ",â": 5093,
  "!,â": 5094,
  " candle": 5095,
  " stared": 5096,
  " root": 5097,
  " roots": 5098,
  " skipped": 5099,
  " ears": 5100,
  " Kim": 5101,
  "stri": 5102,
  " ostri": 5103,
  " ostrich": 5104,
  " knows": 5105,
  "uper": 5106,
  " super": 5107,
  " superhe": 5108,
  " superhero": 5109,
  " superheroes": 5110,
  "umbled": 5111,
  " stumbled": 5112,
  "pon": 5113,
  " wea": 5114,
  " weapon": 5115,
  " weapons": 5116,
  "rilla": 5117,
  " gorilla": 5118,
  " weigh": 5119,
  " weighs": 5120,
  " veil": 5121,
  " veils": 5122,
  " pine": 5123,
  " sight": 5124,
  " sights": 5125,
  " glove": 5126,
  " painter": 5127,
  " painters": 5128,
  " onion": 5129,
  " onions": 5130,
  " bananas": 5131,
  " oak": 5132,
  " herb": 5133,
  " herbs": 5134,
  "head": 5135,
  " ahead": 5136,
  " planet": 5137,
  " planets": 5138,
  "bra": 5139,
  "ebra": 5140,
  " zebra": 5141,
  " zebras": 5142,
  "ense": 5143,
  " lic": 5144,
  " license": 5145,
  " tripped": 5146,
  " thinking": 5147,
  " tray": 5148,
  " trays": 5149,
  " torn": 5150,
  " tornad": 5151,
  " tornado": 5152,
  " tornadoes": 5153,
  " marry": 5154,
  " marrying": 5155,
  " lotion": 5156,
  " complain": 5157,
  " complaining": 5158,
  " univer": 5159,
  " univers": 5160,
  " university": 5161,
  "tress": 5162,
  " mattress": 5163,
  " mattresses": 5164,
  " juicy": 5165,
  " tooth": 5166,
  " toothbr": 5167,
  " toothbrush": 5168,
  " vend": 5169,
  " vendor": 5170,
  " goal": 5171,
  " goals": 5172,
  " hipp": 5173,
  " hippo": 5174,
  "ceed": 5175,
  " succeed": 5176,
  " succeeded": 5177,
  "ention": 5178,
  " mention": 5179,
  " mentioned": 5180,
  "ament": 5181,
  " orn": 5182,
  " ornament": 5183,
  " ornaments": 5184,
  "ric": 5185,
  "ricane": 5186,
  " hurricane": 5187,
  "urch": 5188,
  " church": 5189,
  " flame": 5190,
  " modest": 5191,
  " salt": 5192,
  " novel": 5193,
  " novels": 5194,
  " rot": 5195,
  " rotting": 5196,
  " anch": 5197,
  " anchor": 5198,
  " vol": 5199,
  " volc": 5200,
  " volcano": 5201,
  " trail": 5202,
  " trails": 5203,
  " pastry": 5204,
  " golf": 5205,
  " golfing": 5206,
  " tummy": 5207,
  " colour": 5208,
  " colourful": 5209,
  " loop": 5210,
  " loops": 5211,
  " meat": 5212,
  " meatball": 5213,
  " meatballs": 5214,
  " Fo": 5215,
  " Fox": 5216,
  " dreamed": 5217,
  " polish": 5218,
  " gum": 5219,
  " gumm": 5220,
  " gummies": 5221,
  " rise": 5222,
  " shocked": 5223,
  " bathrobe": 5224,
  "ym": 5225,
  " gym": 5226,
  " yoga": 5227,
  "ushed": 5228,
  " rushed": 5229,
  " Mum": 5230,
  " hive": 5231,
  " missile": 5232,
  " mint": 5233,
  " mints": 5234,
  "man": 5235,
  " mailman": 5236,
  "ned": 5237,
  " planned": 5238,
  "'d": 5239,
  " knock": 5240,
  " knocks": 5241,
  " chas": 5242,
  " chasing": 5243,
  " oil": 5244,
  " oiled": 5245,
  "verse": 5246,
  " reverse": 5247,
  " wallet": 5248,
  "essert": 5249,
  " dessert": 5250,
  " desserts": 5251,
  " pretending": 5252,
  "acht": 5253,
  " yacht": 5254,
  " yachts": 5255,
  "Every": 5256,
  "Everyday": 5257,
  " alread": 5258,
  " already": 5259,
  "Mr": 5260,
  "Mrs": 5261,
  " sy": 5262,
  " symb": 5263,
  " symbol": 5264,
  " symbols": 5265,
  " purse": 5266,
  " dust": 5267,
  " dusty": 5268,
  " junk": 5269,
  " junkyard": 5270,
  " screw": 5271,
  " screws": 5272,
  " task": 5273,
  " tasks": 5274,
  " OK": 5275,
  " carto": 5276,
  " cartoon": 5277,
  " cartoons": 5278,
  " bikes": 5279,
  " skip": 5280,
  " skips": 5281,
  "play": 5282,
  " display": 5283,
  " displayed": 5284,
  " son": 5285,
  " sons": 5286,
  " notice": 5287,
  " noticeboard": 5288,
  " sunset": 5289,
  " sunsets": 5290,
  "istol": 5291,
  " pistol": 5292,
  " pistols": 5293,
  " Dolly": 5294,
  "imney": 5295,
  " chimney": 5296,
  " chimneys": 5297,
  " Boun": 5298,
  " Bounce": 5299,
  " climbing": 5300,
  "Is": 5301,
  "Isn": 5302,
  "ait": 5303,
  "Wait": 5304,
  " Bill": 5305,
  " Billboard": 5306,
  " resc": 5307,
  " rescue": 5308,
  " Bet": 5309,
  " Betty": 5310,
  "iol": 5311,
  " viol": 5312,
  " violin": 5313,
  " weep": 5314,
  " weeping": 5315,
  " model": 5316,
  " models": 5317,
  " cherry": 5318,
  "case": 5319,
  " bookcase": 5320,
  " Pipp": 5321,
  " Pippin": 5322,
  " spear": 5323,
  " those": 5324,
  " ink": 5325,
  " inkling": 5326,
  "uch": 5327,
  "Ouch": 5328,
  "omed": 5329,
  "omeday": 5330,
  " someday": 5331,
  "ately": 5332,
  "med": 5333,
  "medi": 5334,
  "mediately": 5335,
  " immediately": 5336,
  " Polly": 5337,
  " Pete": 5338,
  " reward": 5339,
  " rewarded": 5340,
  "uel": 5341,
  " fuel": 5342,
  "box": 5343,
  " sandbox": 5344,
  " cups": 5345,
  "Well": 5346,
  " fork": 5347,
  " forkful": 5348,
  "ofa": 5349,
  " sofa": 5350,
  " sheet": 5351,
  " sheets": 5352,
  " hook": 5353,
  " hooks": 5354,
  " cable": 5355,
  " eye": 5356,
  " eyeb": 5357,
  " eyebrow": 5358,
  " eyebrows": 5359,
  " Teddy": 5360,
  " rice": 5361,
  " thread": 5362,
  " threads": 5363,
  " lumber": 5364,
  " lumberj": 5365,
  " lumberjack": 5366,
  "opper": 5367,
  " copper": 5368,
  "cky": 5369,
  " yucky": 5370,
  " Give": 5371,
  " drawings": 5372,
  "ster": 5373,
  " oy": 5374,
  " oyster": 5375,
  "ctory": 5376,
  " factory": 5377,
  " mug": 5378,
  " mugs": 5379,
  " shovel": 5380,
  " shovels": 5381,
  " Bird": 5382,
  " Birdie": 5383,
  "gging": 5384,
  " jogging": 5385,
  " wife": 5386,
  " Dan": 5387,
  " Danny": 5388,
  " ig": 5389,
  " igl": 5390,
  " igloo": 5391,
  " pit": 5392,
  " pits": 5393,
  " toe": 5394,
  " prov": 5395,
  " provide": 5396,
  " itch": 5397,
  " itchy": 5398,
  " fog": 5399,
  " sugg": 5400,
  " suggest": 5401,
  " suggested": 5402,
  "old": 5403,
  "Hold": 5404,
  "Holding": 5405,
  " packed": 5406,
  "time": 5407,
  " playtime": 5408,
  " Cl": 5409,
  " Clara": 5410,
  "gy": 5411,
  " ener": 5412,
  " energy": 5413,
  " explain": 5414,
  " explains": 5415,
  " leash": 5416,
  " human": 5417,
  " humans": 5418,
  " lime": 5419,
  " batht": 5420,
  " bathtub": 5421,
  " once": 5422,
  " tube": 5423,
  " ax": 5424,
  " axe": 5425,
  " swung": 5426,
  " may": 5427,
  " mayor": 5428,
  " oft": 5429,
  " often": 5430,
  " gri": 5431,
  " grill": 5432,
  " grilling": 5433,
  " hate": 5434,
  " hunter": 5435,
  " hunters": 5436,
  " enjoying": 5437,
  " stud": 5438,
  " studied": 5439,
  " driving": 5440,
  " picking": 5441,
  " lip": 5442,
  " lips": 5443,
  "ailable": 5444,
  " available": 5445,
  "ured": 5446,
  "asured": 5447,
  " measured": 5448,
  " ur": 5449,
  " urge": 5450,
  " beet": 5451,
  " beetle": 5452,
  " Zip": 5453,
  " alarm": 5454,
  " alarms": 5455,
  " writ": 5456,
  " writing": 5457,
  " gear": 5458,
  " coal": 5459,
  " grape": 5460,
  " stretched": 5461,
  " mem": 5462,
  " memor": 5463,
  " memory": 5464,
  " fau": 5465,
  " fauc": 5466,
  " faucet": 5467,
  " faucets": 5468,
  " cell": 5469,
  " cells": 5470,
  " switch": 5471,
  " reading": 5472,
  " cooking": 5473,
  " curt": 5474,
  " curtain": 5475,
  " curtains": 5476,
  "rane": 5477,
  " crane": 5478,
  " rubber": 5479,
  " ple": 5480,
  " pleased": 5481,
  "iling": 5482,
  " ceiling": 5483,
  "arry": 5484,
  " Harry": 5485,
  " message": 5486,
  " knob": 5487,
  " knobs": 5488,
  " diary": 5489,
  " birdc": 5490,
  " birdcage": 5491,
  " marched": 5492,
  " popped": 5493,
  " ow": 5494,
  " owe": 5495,
  "igz": 5496,
  "igzag": 5497,
  " zigzag": 5498,
  " zigzags": 5499,
  "eral": 5500,
  " mineral": 5501,
  " minerals": 5502,
  " opens": 5503,
  " hedge": 5504,
  " hedgeh": 5505,
  " hedgehog": 5506,
  " shel": 5507,
  " shelter": 5508,
  " sheltering": 5509,
  "ored": 5510,
  " ignored": 5511,
  " lie": 5512,
  " dreaming": 5513,
  " offered": 5514,
  " flour": 5515,
  "ning": 5516,
  " lightning": 5517,
  " castles": 5518,
  " practice": 5519,
  "Al": 5520,
  "Alice": 5521,
  " fre": 5522,
  " fresh": 5523,
  " freshly": 5524,
  " holds": 5525,
  " five": 5526,
  " hall": 5527,
  " hallway": 5528,
  " hallways": 5529,
  " Here": 5530,
  " helic": 5531,
  " helicop": 5532,
  " helicopter": 5533,
  " helicopters": 5534,
  " â": 5535,
  " â": 5536,
  " ââ": 5537,
  " ââ": 5538,
  " telling": 5539,
  "lex": 5540,
  " Alex": 5541,
  " Alexa": 5542,
  " refused": 5543,
  "nal": 5544,
  " journal": 5545,
  " journals": 5546,
  " hut": 5547,
  " huts": 5548,
  " fingers": 5549,
  " cane": 5550,
  " lend": 5551,
  " lending": 5552,
  " camp": 5553,
  " camping": 5554,
  " Look": 5555,
  " Looking": 5556,
  " snap": 5557,
  " snaps": 5558,
  " ten": 5559,
  " twirl": 5560,
  " twirled": 5561,
  "aul": 5562,
  " Paul": 5563,
  " Paula": 5564,
  " poked": 5565,
  " stom": 5566,
  " stomach": 5567,
  " stomachs": 5568,
  " drain": 5569,
  " drains": 5570,
  " attach": 5571,
  " fastest": 5572,
  " prune": 5573,
  " kay": 5574,
  " kayak": 5575,
  " kayaks": 5576,
  " perm": 5577,
  " permit": 5578,
  " permitted": 5579,
  " poke": 5580,
  " skirt": 5581,
  " skirts": 5582,
  " nation": 5583,
  " nations": 5584,
  " trash": 5585,
  " check": 5586,
  " checkout": 5587,
  "nder": 5588,
  "render": 5589,
  " surrender": 5590,
  " surrendering": 5591,
  " size": 5592,
  "angar": 5593,
  "angaroo": 5594,
  " kangaroo": 5595,
  " kangaroos": 5596,
  "ilet": 5597,
  " toilet": 5598,
  " toilets": 5599,
  "Joe": 5600,
  "ination": 5601,
  " imagination": 5602,
  " imaginations": 5603,
  " lands": 5604,
  " landsc": 5605,
  " landscap": 5606,
  " landscape": 5607,
  "ction": 5608,
  "ctions": 5609,
  " inst": 5610,
  " instr": 5611,
  " instru": 5612,
  " instructions": 5613,
  " early": 5614,
  " falling": 5615,
  " gro": 5616,
  " groc": 5617,
  " grocery": 5618,
  " fought": 5619,
  " stable": 5620,
  " stableman": 5621,
  " vest": 5622,
  " vests": 5623,
  " spoke": 5624,
  " disag": 5625,
  " disagree": 5626,
  " disagreement": 5627,
  " disagreements": 5628,
  "Little": 5629,
  " math": 5630,
  "ac": 5631,
  " vac": 5632,
  " vacation": 5633,
  " vacations": 5634,
  " ward": 5635,
  " wardro": 5636,
  " wardrobe": 5637,
  "erc": 5638,
  " exerc": 5639,
  " exercise": 5640,
  " wag": 5641,
  " wags": 5642,
  " Are": 5643,
  " Aren": 5644,
  " Ru": 5645,
  " Ruby": 5646,
  " neat": 5647,
  " neatly": 5648,
  " bent": 5649,
  " bill": 5650,
  " billboard": 5651,
  " billboards": 5652,
  " obs": 5653,
  " observe": 5654,
  " observeed": 5655,
  " favou": 5656,
  " favourite": 5657,
  " player": 5658,
  " war": 5659,
  " warri": 5660,
  " warriors": 5661,
  "Did": 5662,
  "Didi": 5663,
  " beep": 5664,
  " beeped": 5665,
  " cord": 5666,
  " cords": 5667,
  " growing": 5668,
  " happier": 5669,
  " bury": 5670,
  " burying": 5671,
  " distance": 5672,
  " sticker": 5673,
  " hanger": 5674,
  " shaking": 5675,
  " leaving": 5676,
  "tray": 5677,
  " ashtray": 5678,
  " ashtrays": 5679,
  " rake": 5680,
  "ummer": 5681,
  " summer": 5682,
  " summertime": 5683,
  " prevent": 5684,
  " prevented": 5685,
  " sent": 5686,
  " sentence": 5687,
  " raise": 5688,
  " forgave": 5689,
  " cudd": 5690,
  " cuddled": 5691,
  " stickers": 5692,
  "Jill": 5693,
  " veh": 5694,
  " vehic": 5695,
  " vehicle": 5696,
  " barking": 5697,
  "ature": 5698,
  " nature": 5699,
  " resist": 5700,
  " resisting": 5701,
  " mixer": 5702,
  " names": 5703,
  " men": 5704,
  " menu": 5705,
  " holid": 5706,
  " holiday": 5707,
  " holidays": 5708,
  "inked": 5709,
  " blinked": 5710,
  "ari": 5711,
  " safari": 5712,
  "chair": 5713,
  " armchair": 5714,
  " armchairs": 5715,
  " calend": 5716,
  " calendar": 5717,
  " calendars": 5718,
  " pand": 5719,
  " panda": 5720,
  "ames": 5721,
  " James": 5722,
  " unite": 5723,
  "usie": 5724,
  " Susie": 5725,
  "Ow": 5726,
  "Owl": 5727,
  "Owls": 5728,
  " reind": 5729,
  " reinde": 5730,
  " reindeer": 5731,
  "low": 5732,
  " Slow": 5733,
  " Slowly": 5734,
  " troph": 5735,
  " trophy": 5736,
  "ses": 5737,
  " roses": 5738,
  " Fro": 5739,
  " Frogg": 5740,
  " Froggy": 5741,
  " jumps": 5742,
  " anyway": 5743,
  " anyways": 5744,
  " belongs": 5745,
  " chose": 5746,
  "aid": 5747,
  "aids": 5748,
  "oof": 5749,
  "Woof": 5750,
  " matches": 5751,
  " film": 5752,
  " films": 5753,
  " Elly": 5754,
  " lawn": 5755,
  " quiz": 5756,
  "orted": 5757,
  " sorted": 5758,
  " Grandpa": 5759,
  " Lee": 5760,
  " Ow": 5761,
  " Owl": 5762,
  "cus": 5763,
  " discus": 5764,
  " discuss": 5765,
  " discussing": 5766,
  "place": 5767,
  " fireplace": 5768,
  "chan": 5769,
  " mechan": 5770,
  " mechanic": 5771,
  " mechanics": 5772,
  " grabs": 5773,
  "la": 5774,
  " excla": 5775,
  " exclaim": 5776,
  " exclaimed": 5777,
  " Big": 5778,
  "mber": 5779,
  "member": 5780,
  " Remember": 5781,
  " Remembering": 5782,
  " caring": 5783,
  " cliff": 5784,
  "ached": 5785,
  " attached": 5786,
  "ium": 5787,
  " stad": 5788,
  " stadium": 5789,
  "amber": 5790,
  " chamber": 5791,
  "rmome": 5792,
  "rmometer": 5793,
  " thermometer": 5794,
  " trade": 5795,
  " blouse": 5796,
  " improve": 5797,
  "ky": 5798,
  " Sky": 5799,
  "vet": 5800,
  "Vel": 5801,
  "Velvet": 5802,
  " Velvet": 5803,
  "ampoo": 5804,
  " shampoo": 5805,
  " kinds": 5806,
  "Sh": 5807,
  "Shh": 5808,
  "Shhh": 5809,
  "Qu": 5810,
  " Qu": 5811,
  " Quick": 5812,
  " Quickly": 5813,
  " above": 5814,
  " alive": 5815,
  " searching": 5816,
  " helper": 5817,
  " surprises": 5818,
  " raz": 5819,
  " razor": 5820,
  " chance": 5821,
  " sport": 5822,
  " sports": 5823,
  " pair": 5824,
  " pairs": 5825,
  " whip": 5826,
  " whips": 5827,
  " whipsled": 5828,
  "Em": 5829,
  "Emma": 5830,
  " arg": 5831,
  " argue": 5832,
  "bby": 5833,
  " Abby": 5834,
  "undry": 5835,
  " laundry": 5836,
  "aws": 5837,
  " claws": 5838,
  " Where": 5839,
  " Wherever": 5840,
  " peek": 5841,
  " invite": 5842,
  " wipe": 5843,
  " slip": 5844,
  " slips": 5845,
  " replace": 5846,
  " replacement": 5847,
  " regret": 5848,
  " regretted": 5849,
  " comfort": 5850,
  " comforting": 5851,
  " comfortingly": 5852,
  "oco": 5853,
  " Coco": 5854,
  " Cocoa": 5855,
  " finds": 5856,
  " rece": 5857,
  " receive": 5858,
  "ki": 5859,
  "iki": 5860,
  " Kiki": 5861,
  " cree": 5862,
  " creek": 5863,
  " breat": 5864,
  " breathe": 5865,
  " tip": 5866,
  " tipto": 5867,
  " tiptoed": 5868,
  "ffic": 5869,
  " traffic": 5870,
  " wine": 5871,
  " winema": 5872,
  " winemak": 5873,
  " winemaker": 5874,
  " art": 5875,
  " artist": 5876,
  " artists": 5877,
  " ske": 5878,
  " skelet": 5879,
  " skeleton": 5880,
  "night": 5881,
  " tonight": 5882,
  "irp": 5883,
  " chirp": 5884,
  " chirped": 5885,
  " planes": 5886,
  " rail": 5887,
  " rails": 5888,
  "angu": 5889,
  " langu": 5890,
  " language": 5891,
  "dom": 5892,
  " wisdom": 5893,
  " incre": 5894,
  " increase": 5895,
  " ped": 5896,
  " pedal": 5897,
  " pedals": 5898,
  "oe": 5899,
  "loe": 5900,
  " Chloe": 5901,
  "rod": 5902,
  " introd": 5903,
  " introduce": 5904,
  " sandc": 5905,
  " sandcast": 5906,
  " sandcastle": 5907,
  " handed": 5908,
  "apa": 5909,
  " Papa": 5910,
  "asis": 5911,
  " oasis": 5912,
  " theater": 5913,
  " cards": 5914,
  " country": 5915,
  " countryside": 5916,
  " buckle": 5917,
  " minute": 5918,
  " restore": 5919,
  "xi": 5920,
  " taxi": 5921,
  " shone": 5922,
  "gn": 5923,
  " reco": 5924,
  " recogn": 5925,
  " recognize": 5926,
  "Ne": 5927,
  "Next": 5928,
  " feelings": 5929,
  " aw": 5930,
  " awes": 5931,
  " awesome": 5932,
  " Mummy": 5933,
  " chickens": 5934,
  "pare": 5935,
  " prepare": 5936,
  " prepares": 5937,
  " saving": 5938,
  " sudden": 5939,
  " puddles": 5940,
  " remove": 5941,
  " yield": 5942,
  " yielded": 5943,
  " sandwic": 5944,
  " sandwiches": 5945,
  " flood": 5946,
  " flooded": 5947,
  " navy": 5948,
  " steam": 5949,
  " steaming": 5950,
  " mall": 5951,
  " happens": 5952,
  " grand": 5953,
  " grandm": 5954,
  " grandmother": 5955,
  " ext": 5956,
  " extra": 5957,
  " extraord": 5958,
  " extraordinary": 5959,
  " freeze": 5960,
  "Daisy": 5961,
  " Zoomy": 5962,
  " ignore": 5963,
  " ignores": 5964,
  "ations": 5965,
  " decorations": 5966,
  "ages": 5967,
  " sausages": 5968,
  " starts": 5969,
  " jail": 5970,
  " jailer": 5971,
  " tease": 5972,
  " pulls": 5973,
  " spade": 5974,
  "ason": 5975,
  " season": 5976,
  " seasons": 5977,
  " shakes": 5978,
  " socks": 5979,
  "veal": 5980,
  " reveal": 5981,
  " revealed": 5982,
  " Y": 5983,
  " Yest": 5984,
  " Yester": 5985,
  " Yesterday": 5986,
  " lives": 5987,
  " breaks": 5988,
  "use": 5989,
  " refuse": 5990,
  " advice": 5991,
  " cur": 5992,
  " curled": 5993,
  "alley": 5994,
  " valley": 5995,
  " valleys": 5996,
  " lid": 5997,
  " lids": 5998,
  " smells": 5999,
  " sounded": 6000,
  " trem": 6001,
  " tremble": 6002,
  "ince": 6003,
  " since": 6004,
  " page": 6005,
  "mand": 6006,
  " demand": 6007,
  " demanded": 6008,
  " meowed": 6009,
  " laser": 6010,
  " sub": 6011,
  " subway": 6012,
  " subways": 6013,
  " kneel": 6014,
  " kneeled": 6015,
  " appl": 6016,
  " applau": 6017,
  " applaud": 6018,
  " applauded": 6019,
  "ippery": 6020,
  " slippery": 6021,
  "ecause": 6022,
  "Because": 6023,
  " pushes": 6024,
  " believed": 6025,
  " shrugg": 6026,
  " shrugged": 6027,
  " plast": 6028,
  " plastic": 6029,
  " plastics": 6030,
  " pat": 6031,
  " pati": 6032,
  " patience": 6033,
  " tub": 6034,
  " tubes": 6035,
  " remain": 6036,
  " remains": 6037,
  "Yuck": 6038,
  " hung": 6039,
  " hungri": 6040,
  " hungrily": 6041,
  " hoping": 6042,
  "Read": 6043,
  "Ready": 6044,
  " laught": 6045,
  " laughter": 6046,
  " slap": 6047,
  " slaps": 6048,
  " Or": 6049,
  " Orin": 6050,
  "aking": 6051,
  " breaking": 6052,
  " heat": 6053,
  " heating": 6054,
  " fort": 6055,
  " forts": 6056,
  " brick": 6057,
  " imagined": 6058,
  "ola": 6059,
  " Lola": 6060,
  " mystery": 6061,
  " pushing": 6062,
  " somewhere": 6063,
  "ates": 6064,
  " pirates": 6065,
  "Your": 6066,
  " shouts": 6067,
  " delay": 6068,
  " delayed": 6069,
  " Would": 6070,
  " flies": 6071,
  "Yay": 6072,
  " mass": 6073,
  " massage": 6074,
  "ison": 6075,
  " poison": 6076,
  " poisonous": 6077,
  " Fl": 6078,
  " Flor": 6079,
  " Flora": 6080,
  " apol": 6081,
  " apolog": 6082,
  " apologized": 6083,
  " suff": 6084,
  " suffer": 6085,
  " suffering": 6086,
  " ended": 6087,
  "eor": 6088,
  "eorge": 6089,
  " George": 6090,
  " berry": 6091,
  " cho": 6092,
  " choice": 6093,
  " rained": 6094,
  "ected": 6095,
  " collected": 6096,
  " waste": 6097,
  " wasteful": 6098,
  "iggly": 6099,
  " Wiggly": 6100,
  " dear": 6101,
  " dearly": 6102,
  " leak": 6103,
  "orses": 6104,
  " horses": 6105,
  "To": 6106,
  "Toot": 6107,
  "Tooty": 6108,
  " End": 6109,
  " dancer": 6110,
  "arlie": 6111,
  " Charlie": 6112,
  " x": 6113,
  " Mike": 6114,
  " fixing": 6115,
  " eaten": 6116,
  "iest": 6117,
  " happiest": 6118,
  " thanks": 6119,
  "urnit": 6120,
  "urniture": 6121,
  " furniture": 6122,
  "Will": 6123,
  "Willow": 6124,
  " plat": 6125,
  " plates": 6126,
  " dishes": 6127,
  " soil": 6128,
  "aky": 6129,
  "queaky": 6130,
  " Squeaky": 6131,
  "reddy": 6132,
  " Freddy": 6133,
  " poppy": 6134,
  "ef": 6135,
  " reef": 6136,
  " reefs": 6137,
  "omm": 6138,
  "ommend": 6139,
  " recommend": 6140,
  " recommended": 6141,
  " marble": 6142,
  " sneak": 6143,
  " sneaky": 6144,
  " Sm": 6145,
  " Smith": 6146,
  " Smiths": 6147,
  " cared": 6148,
  " missing": 6149,
  " puzzles": 6150,
  " wre": 6151,
  " wreck": 6152,
  "ged": 6153,
  " urged": 6154,
  " admired": 6155,
  " scold": 6156,
  " scolded": 6157,
  " impressed": 6158,
  "ipping": 6159,
  " skipping": 6160,
  "Mary": 6161,
  "Ch": 6162,
  "Chirp": 6163,
  "Chirpy": 6164,
  "Mark": 6165,
  " content": 6166,
  " contented": 6167,
  " contentedly": 6168,
  "ices": 6169,
  " voices": 6170,
  " myse": 6171,
  " myself": 6172,
  " expec": 6173,
  " expect": 6174,
  " expects": 6175,
  "ating": 6176,
  " decorating": 6177,
  "ggie": 6178,
  " Maggie": 6179,
  " strawberries": 6180,
  " giggle": 6181,
  "riage": 6182,
  " marriage": 6183,
  "Buddy": 6184,
  " sticky": 6185,
  " following": 6186,
  " Ste": 6187,
  " Steve": 6188,
  " pup": 6189,
  " pupil": 6190,
  " pupils": 6191,
  " second": 6192,
  " seconds": 6193,
  "wards": 6194,
  " onwards": 6195,
  " pastel": 6196,
  " pastels": 6197,
  "aked": 6198,
  " soaked": 6199,
  " file": 6200,
  " score": 6201,
  " scores": 6202,
  " points": 6203,
  " placed": 6204,
  " God": 6205,
  "ud": 6206,
  " thud": 6207,
  " settle": 6208,
  "ully": 6209,
  "fully": 6210,
  " gracefully": 6211,
  " luck": 6212,
  " luckily": 6213,
  " blueberries": 6214,
  " Ro": 6215,
  " Rollie": 6216,
  " Su": 6217,
  " Suzy": 6218,
  " paid": 6219,
  "Jenny": 6220,
  " harb": 6221,
  " harbor": 6222,
  "hest": 6223,
  " highest": 6224,
  " baking": 6225,
  " greedy": 6226,
  " sigh": 6227,
  " sighs": 6228,
  "All": 6229,
  "Allig": 6230,
  "Alligat": 6231,
  "Alligators": 6232,
  "erved": 6233,
  " served": 6234,
  " pitch": 6235,
  " putting": 6236,
  " bend": 6237,
  " bends": 6238,
  " Un": 6239,
  " Uncle": 6240,
  " event": 6241,
  " events": 6242,
  " sir": 6243,
  " Sandy": 6244,
  " brighter": 6245,
  "fume": 6246,
  " perfume": 6247,
  "ines": 6248,
  " vines": 6249,
  "ero": 6250,
  " zero": 6251,
  " supply": 6252,
  " supplying": 6253,
  " gain": 6254,
  " gaining": 6255,
  " skill": 6256,
  " skills": 6257,
  " snail": 6258,
  " snails": 6259,
  " thumb": 6260,
  " thumbs": 6261,
  " dare": 6262,
  " dares": 6263,
  "year": 6264,
  " leather": 6265,
  " throws": 6266,
  " enter": 6267,
  " entering": 6268,
  "airs": 6269,
  "stairs": 6270,
  " upstairs": 6271,
  " operation": 6272,
  " tut": 6273,
  " tutor": 6274,
  " Have": 6275,
  " rush": 6276,
  "Grandma": 6277,
  " sparkled": 6278,
  "sing": 6279,
  " losing": 6280,
  " weather": 6281,
  "Mimi": 6282,
  " streng": 6283,
  " strength": 6284,
  " strengths": 6285,
  " candles": 6286,
  "enry": 6287,
  " Henry": 6288,
  " lemonade": 6289,
  " bang": 6290,
  " banged": 6291,
  " explored": 6292,
  " splashing": 6293,
  " steel": 6294,
  " weight": 6295,
  " weights": 6296,
  " unif": 6297,
  " uniform": 6298,
  " uniforms": 6299,
  " racing": 6300,
  " sty": 6301,
  " style": 6302,
  " betwe": 6303,
  " between": 6304,
  "race": 6305,
  " Grace": 6306,
  "aby": 6307,
  " Baby": 6308,
  " buzz": 6309,
  " buzzing": 6310,
  "rise": 6311,
  " sunrise": 6312,
  " counter": 6313,
  "heart": 6314,
  " sweetheart": 6315,
  " port": 6316,
  " portion": 6317,
  " portions": 6318,
  " price": 6319,
  " capt": 6320,
  " captain": 6321,
  " captains": 6322,
  "illie": 6323,
  " Millie": 6324,
  "va": 6325,
  " Ava": 6326,
  "igi": 6327,
  " Gigi": 6328,
  "These": 6329,
  "ucked": 6330,
  " tucked": 6331,
  "izes": 6332,
  " sizes": 6333,
  " expe": 6334,
  " experi": 6335,
  " experience": 6336,
  " waving": 6337,
  " bother": 6338,
  " bothered": 6339,
  " tug": 6340,
  " spots": 6341,
  " snugg": 6342,
  " snuggled": 6343,
  " checked": 6344,
  "shed": 6345,
  " crashed": 6346,
  "uggage": 6347,
  " luggage": 6348,
  "ores": 6349,
  " chores": 6350,
  " Bow": 6351,
  " Lizzy": 6352,
  " entered": 6353,
  " Che": 6354,
  " Chew": 6355,
  " Chewy": 6356,
  "Welcome": 6357,
  " given": 6358,
  " Lilly": 6359,
  "Lisa": 6360,
  "ccer": 6361,
  " soccer": 6362,
  " quite": 6363,
  " raining": 6364,
  " learnt": 6365,
  " soak": 6366,
  " buried": 6367,
  " whisper": 6368,
  " whispering": 6369,
  " teaching": 6370,
  " wandered": 6371,
  " sailing": 6372,
  "look": 6373,
  "looking": 6374,
  " overlooking": 6375,
  " starting": 6376,
  " licks": 6377,
  " follows": 6378,
  " easily": 6379,
  " welc": 6380,
  " welcomed": 6381,
  " printed": 6382,
  "Surpri": 6383,
  "Surprise": 6384,
  "Ann": 6385,
  "Annie": 6386,
  " chee": 6387,
  " cheek": 6388,
  " hurting": 6389,
  "ittens": 6390,
  " Mittens": 6391,
  "aces": 6392,
  " spaces": 6393,
  " spacesh": 6394,
  " spaceship": 6395,
  "reeze": 6396,
  " breeze": 6397,
  "ops": 6398,
  "Oops": 6399,
  " climbs": 6400,
  " beha": 6401,
  " behaved": 6402,
  " moves": 6403,
  " Eventually": 6404,
  " invitation": 6405,
  "reat": 6406,
  " threat": 6407,
  " threatened": 6408,
  " hopes": 6409,
  "hank": 6410,
  " flapped": 6411,
  " whistled": 6412,
  " floated": 6413,
  " fallen": 6414,
  "Le": 6415,
  "Leo": 6416,
  "gers": 6417,
  " strangers": 6418,
  " Who": 6419,
  " lec": 6420,
  " lecture": 6421,
  " lectures": 6422,
  " inf": 6423,
  " infant": 6424,
  " below": 6425,
  "ents": 6426,
  " students": 6427,
  " reaches": 6428,
  " cakes": 6429,
  " strike": 6430,
  "imp": 6431,
  " simp": 6432,
  " simple": 6433,
  "pecially": 6434,
  " especially": 6435,
  "ana": 6436,
  " Nana": 6437,
  " planted": 6438,
  " Finny": 6439,
  "oy": 6440,
  "joy": 6441,
  "njoy": 6442,
  " Enjoy": 6443,
  " calls": 6444,
  "uesday": 6445,
  " Tuesday": 6446,
  " Tuesdays": 6447,
  " apart": 6448,
  " apartment": 6449,
  " Mari": 6450,
  " Maria": 6451,
  "yth": 6452,
  "ythm": 6453,
  " rhythm": 6454,
  " rhythms": 6455,
  " shower": 6456,
  " Is": 6457,
  " Isn": 6458,
  " See": 6459,
  " Seeing": 6460,
  " sew": 6461,
  " sewed": 6462,
  " scratch": 6463,
  " scratchy": 6464,
  "With": 6465,
  "Without": 6466,
  " jogged": 6467,
  " tuna": 6468,
  "Not": 6469,
  "Notice": 6470,
  " tour": 6471,
  " tours": 6472,
  " row": 6473,
  " rows": 6474,
  " brings": 6475,
  " crash": 6476,
  "Bella": 6477,
  " worth": 6478,
  " shouting": 6479,
  " mama": 6480,
  " shined": 6481,
  " gaz": 6482,
  " gazed": 6483,
  " pad": 6484,
  " padd": 6485,
  " paddled": 6486,
  " blink": 6487,
  " blinking": 6488,
  " waffles": 6489,
  " cub": 6490,
  " cubes": 6491,
  " Dave": 6492,
  " Davey": 6493,
  " Zara": 6494,
  "\",": 6495,
  " oh": 6496,
  " differen": 6497,
  " difference": 6498,
  " wob": 6499,
  " wobb": 6500,
  " wobbly": 6501,
  " balan": 6502,
  " balancing": 6503,
  "oves": 6504,
  " gloves": 6505,
  " encourage": 6506,
  " encouragement": 6507,
  " wigg": 6508,
  " wiggle": 6509,
  " toes": 6510,
  " manage": 6511,
  " furt": 6512,
  " further": 6513,
  " tide": 6514,
  " beauty": 6515,
  "Everyone": 6516,
  " Everything": 6517,
  " ing": 6518,
  " ingred": 6519,
  " ingredient": 6520,
  " ingredients": 6521,
  " King": 6522,
  " acted": 6523,
  " west": 6524,
  "zzy": 6525,
  "uzzy": 6526,
  "Buzzy": 6527,
  " colours": 6528,
  " squeezed": 6529,
  " Tilly": 6530,
  " mice": 6531,
  " famil": 6532,
  " families": 6533,
  " Red": 6534,
  " tong": 6535,
  " tongue": 6536,
  " beam": 6537,
  " beamed": 6538,
  " plays": 6539,
  " pur": 6540,
  " purr": 6541,
  " purrs": 6542,
  " ideas": 6543,
  " universe": 6544,
  " vegetable": 6545,
  " sits": 6546,
  " brain": 6547,
  " brains": 6548,
  " celebrated": 6549,
  "right": 6550,
  " alright": 6551,
  " hen": 6552,
  " hens": 6553,
  " palm": 6554,
  " palms": 6555,
  " kisses": 6556,
  " backpack": 6557,
  " backpacks": 6558,
  " cutting": 6559,
  " Good": 6560,
  " Goodby": 6561,
  " Goodbye": 6562,
  " comf": 6563,
  " comfy": 6564,
  " wagging": 6565,
  " image": 6566,
  " snapped": 6567,
  " raised": 6568,
  " sorts": 6569,
  " release": 6570,
  " Me": 6571,
  " Meg": 6572,
  " Rock": 6573,
  " Rocky": 6574,
  " Bubbles": 6575,
  " Finn": 6576,
  " snowball": 6577,
  " snowballs": 6578,
  " pulling": 6579,
  " sliding": 6580,
  "Today": 6581,
  " punished": 6582,
  " works": 6583,
  " offer": 6584,
  " offering": 6585,
  "itter": 6586,
  " glitter": 6587,
  " glittered": 6588,
  " Wally": 6589,
  " Ted": 6590,
  " allow": 6591,
  " allowing": 6592,
  " warning": 6593,
  "ib": 6594,
  " sib": 6595,
  " sibl": 6596,
  " siblings": 6597,
  " squ": 6598,
  " squish": 6599,
  " squishy": 6600,
  " blood": 6601,
  "unately": 6602,
  "fortunately": 6603,
  "Un": 6604,
  "Unfortunately": 6605,
  " argu": 6606,
  " argued": 6607,
  " Hoppy": 6608,
  " worse": 6609,
  " dressed": 6610,
  " scoop": 6611,
  " scooped": 6612,
  " ruler": 6613,
  " Pr": 6614,
  " Prin": 6615,
  " Princ": 6616,
  " Princess": 6617,
  "'ve": 6618,
  " heel": 6619,
  " heels": 6620,
  " conf": 6621,
  " confl": 6622,
  " conflict": 6623,
  "osie": 6624,
  " Rosie": 6625,
  " fireworks": 6626,
  " memories": 6627,
  " flap": 6628,
  " flaps": 6629,
  " attention": 6630,
  "ippy": 6631,
  " Hippy": 6632,
  "bbit": 6633,
  "abbit": 6634,
  " Rabbit": 6635,
  " solved": 6636,
  "quest": 6637,
  " request": 6638,
  " requested": 6639,
  " accep": 6640,
  " accepted": 6641,
  " grant": 6642,
  " grants": 6643,
  " olive": 6644,
  "Ella": 6645,
  " Pinky": 6646,
  " An": 6647,
  " Anne": 6648,
  "mm": 6649,
  "Mmm": 6650,
  "Mmmm": 6651,
  " pebbles": 6652,
  " daisy": 6653,
  " lung": 6654,
  " lungs": 6655,
  "ory": 6656,
  "ictory": 6657,
  " victory": 6658,
  "ually": 6659,
  " actually": 6660,
  " dried": 6661,
  "ena": 6662,
  " Lena": 6663,
  " shot": 6664,
  " shots": 6665,
  " spit": 6666,
  " spits": 6667,
  " twisted": 6668,
  " surround": 6669,
  " surrounded": 6670,
  " lined": 6671,
  " shouldn": 6672,
  " resting": 6673,
  "igging": 6674,
  " digging": 6675,
  " Sund": 6676,
  " Sunday": 6677,
  " Sundays": 6678,
  "Bl": 6679,
  "Blue": 6680,
  "Bluey": 6681,
  " Hope": 6682,
  " catching": 6683,
  "etch": 6684,
  " fetch": 6685,
  " ble": 6686,
  " bleed": 6687,
  " bleeding": 6688,
  "Some": 6689,
  "Sometimes": 6690,
  " slapped": 6691,
  " watches": 6692,
  " prepar": 6693,
  " prepared": 6694,
  "indy": 6695,
  " Cindy": 6696,
  " Pat": 6697,
  " Patty": 6698,
  " muffins": 6699,
  " bites": 6700,
  " winning": 6701,
  " baked": 6702,
  " ol": 6703,
  " olives": 6704,
  " cape": 6705,
  "ding": 6706,
  "edding": 6707,
  " wedding": 6708,
  " shed": 6709,
  "lves": 6710,
  " ourse": 6711,
  " ourselves": 6712,
  " Mandy": 6713,
  " brus": 6714,
  " brushes": 6715,
  " pinched": 6716,
  " tore": 6717,
  " neighbour": 6718,
  " neighbourh": 6719,
  " neighbourhood": 6720,
  " result": 6721,
  " results": 6722,
  "plash": 6723,
  " Splash": 6724,
  "ler": 6725,
  " todd": 6726,
  " toddler": 6727,
  " bouncy": 6728,
  " beds": 6729,
  " bedshe": 6730,
  " bedsheet": 6731,
  " bedsheets": 6732,
  " disagre": 6733,
  " disagreed": 6734,
  " quack": 6735,
  " quacking": 6736,
  " bricks": 6737,
  "bies": 6738,
  " babies": 6739,
  " straight": 6740,
  " straightened": 6741,
  " Each": 6742,
  " Zigzag": 6743,
  " Toto": 6744,
  " seeing": 6745,
  " muddy": 6746,
  "ashion": 6747,
  " fashion": 6748,
  " fashions": 6749,
  " zipped": 6750,
  " Liz": 6751,
  " Liza": 6752,
  " winner": 6753,
  "ishing": 6754,
  " polishing": 6755,
  "ther": 6756,
  " farther": 6757,
  " wink": 6758,
  " winks": 6759,
  " remained": 6760,
  "cer": 6761,
  " officer": 6762,
  " Bo": 6763,
  " Boxy": 6764,
  " Sun": 6765,
  " Sunshine": 6766,
  " Before": 6767,
  " Kate": 6768,
  " married": 6769,
  " easier": 6770,
  " setting": 6771,
  " isn": 6772,
  " Hop": 6773,
  " web": 6774,
  " webs": 6775,
  " peaches": 6776,
  " vel": 6777,
  " velvet": 6778,
  " printer": 6779,
  " rang": 6780,
  " Milly": 6781,
  " tastes": 6782,
  " sip": 6783,
  " sips": 6784,
  " emer": 6785,
  " emerg": 6786,
  " emergen": 6787,
  " emergency": 6788,
  "sit": 6789,
  " hesit": 6790,
  " hesitated": 6791,
  "riend": 6792,
  "riends": 6793,
  " Friends": 6794,
  " oran": 6795,
  " oranges": 6796,
  "rr": 6797,
  "rrr": 6798,
  "Brrr": 6799,
  " shock": 6800,
  "Fred": 6801,
  "Fredd": 6802,
  "Freddie": 6803,
  "rec": 6804,
  " apprec": 6805,
  " appreci": 6806,
  " appreciate": 6807,
  " flat": 6808,
  " flatten": 6809,
  "ited": 6810,
  " united": 6811,
  " sprink": 6812,
  " sprinkles": 6813,
  " These": 6814,
  " appro": 6815,
  " approached": 6816,
  "ifi": 6817,
  " Fifi": 6818,
  " Bree": 6819,
  " Breezy": 6820,
  " bak": 6821,
  " bakery": 6822,
  "omas": 6823,
  " Thomas": 6824,
  " none": 6825,
  " tremb": 6826,
  " trembling": 6827,
  " crunch": 6828,
  " crunchy": 6829,
  " fishing": 6830,
  " turning": 6831,
  " gust": 6832,
  " gusts": 6833,
  "Ha": 6834,
  "Haile": 6835,
  "Hailey": 6836,
  "Yum": 6837,
  "Yumi": 6838,
  "ways": 6839,
  " Always": 6840,
  " Lucky": 6841,
  " Pip": 6842,
  " guy": 6843,
  " guys": 6844,
  " mister": 6845,
  " unlocked": 6846,
  "Moral": 6847,
  "Morals": 6848,
  " pies": 6849,
  "ided": 6850,
  " provided": 6851,
  " pra": 6852,
  " praised": 6853,
  " underground": 6854,
  " undergrounds": 6855,
  "chie": 6856,
  " achie": 6857,
  " achieve": 6858,
  " achievement": 6859,
  " achievements": 6860,
  " peppers": 6861,
  " pok": 6862,
  " poking": 6863,
  "Cat": 6864,
  "Catty": 6865,
  " created": 6866,
  " bones": 6867,
  "icky": 6868,
  " Chicky": 6869,
  " exit": 6870,
  " exits": 6871,
  " opin": 6872,
  " opinion": 6873,
  " opinions": 6874,
  "oming": 6875,
  " becoming": 6876,
  " known": 6877,
  " lets": 6878,
  " Something": 6879,
  " screams": 6880,
  "iggy": 6881,
  " Ziggy": 6882,
  "acked": 6883,
  " quacked": 6884,
  "ining": 6885,
  " ruining": 6886,
  "lt": 6887,
  " knelt": 6888,
  "ips": 6889,
  " chips": 6890,
  " ago": 6891,
  " twink": 6892,
  " twinkling": 6893,
  "ived": 6894,
  " received": 6895,
  "ups": 6896,
  " Set": 6897,
  " Setups": 6898,
  " wooden": 6899,
  " Ray": 6900,
  " firef": 6901,
  " firefight": 6902,
  " firefighters": 6903,
  "dges": 6904,
  " bridges": 6905,
  "Bobby": 6906,
  " chall": 6907,
  " challen": 6908,
  " challenge": 6909,
  " jazz": 6910,
  " vanish": 6911,
  "tance": 6912,
  " importance": 6913,
  " Later": 6914,
  "umes": 6915,
  " costumes": 6916,
  "achel": 6917,
  " Rachel": 6918,
  " shopping": 6919,
  " lick": 6920,
  " licking": 6921,
  "choo": 6922,
  "Achoo": 6923,
  "ury": 6924,
  "xury": 6925,
  " lu": 6926,
  " luxury": 6927,
  "ulie": 6928,
  " Julie": 6929,
  " Lou": 6930,
  " Louise": 6931,
  "Momo": 6932,
  " waits": 6933,
  " meow": 6934,
  " meowing": 6935,
  " Happy": 6936,
  "iers": 6937,
  " soldiers": 6938,
  " celebr": 6939,
  " celebration": 6940,
  "!\",": 6941,
  " Follow": 6942,
  " Followed": 6943,
  "sted": 6944,
  "erested": 6945,
  " interested": 6946,
  "ued": 6947,
  " rescued": 6948,
  " silence": 6949,
  "ety": 6950,
  " safety": 6951,
  " waist": 6952,
  " waistb": 6953,
  " waistband": 6954,
  " waistbands": 6955,
  " stirring": 6956,
  " admir": 6957,
  " admiring": 6958,
  " admiringly": 6959,
  " ripped": 6960,
  "eep": 6961,
  " Keep": 6962,
  " Keeping": 6963,
  " trapped": 6964,
  "umble": 6965,
  " stumble": 6966,
  "!'": 6967,
  "!'.": 6968,
  " sting": 6969,
  " stinging": 6970,
  "avid": 6971,
  " David": 6972,
  "hello": 6973,
  " V": 6974,
  " Viv": 6975,
  " Vivi": 6976,
  " weighed": 6977,
  "ded": 6978,
  " included": 6979,
  " fed": 6980,
  " strings": 6981,
  " mixing": 6982,
  " amazement": 6983,
  " stripes": 6984,
  " laid": 6985,
  " napping": 6986,
  " marching": 6987,
  " chewing": 6988,
  "Would": 6989,
  "Wouldn": 6990,
  "zen": 6991,
  " frozen": 6992,
  " muscles": 6993,
  " Jess": 6994,
  " Jessic": 6995,
  " Jessica": 6996,
  " noon": 6997,
  " dared": 6998,
  " six": 6999,
  " sixty": 7000,
  " drinks": 7001,
  "oved": 7002,
  " removed": 7003,
  " stitch": 7004,
  "Happy": 7005,
  "ids": 7006,
  " Kids": 7007,
  " kitty": 7008,
  "ote": 7009,
  " remote": 7010,
  " pets": 7011,
  " dire": 7012,
  " direction": 7013,
  " vet": 7014,
  " crow": 7015,
  " crowd": 7016,
  " crowds": 7017,
  "Peter": 7018,
  " decorated": 7019,
  " tex": 7020,
  " texture": 7021,
  " textures": 7022,
  "ugged": 7023,
  " tugged": 7024,
  " peel": 7025,
  " peeled": 7026,
  "izing": 7027,
  " organizing": 7028,
  " buildings": 7029,
  " keeps": 7030,
  " thri": 7031,
  " thrilled": 7032,
  " Out": 7033,
  " Outside": 7034,
  " doggy": 7035,
  " burning": 7036,
  "isty": 7037,
  " twisty": 7038,
  " Both": 7039,
  " Mo": 7040,
  " Moir": 7041,
  " Moira": 7042,
  "Really": 7043,
  " expected": 7044,
  " May": 7045,
  " Maya": 7046,
  " marbles": 7047,
  "oper": 7048,
  " proper": 7049,
  " properly": 7050,
  "atie": 7051,
  " Katie": 7052,
  " Bouncy": 7053,
  "ssible": 7054,
  " possible": 7055,
  " tallest": 7056,
  "hind": 7057,
  " Behind": 7058,
  " scrubb": 7059,
  " scrubbed": 7060,
  " piles": 7061,
  " hated": 7062,
  " twin": 7063,
  " nic": 7064,
  " nicer": 7065,
  "Dan": 7066,
  "Danny": 7067,
  "house": 7068,
  " dollhouse": 7069,
  " petted": 7070,
  " pears": 7071,
  "eave": 7072,
  " Leave": 7073,
  " rested": 7074,
  " stretching": 7075,
  " shr": 7076,
  " shrug": 7077,
  " shrugs": 7078,
  "arth": 7079,
  " Earth": 7080,
  "ab": 7081,
  "abella": 7082,
  " Isabella": 7083,
  " Tuna": 7084,
  " Dare": 7085,
  "ien": 7086,
  " alien": 7087,
  "Jen": 7088,
  "Jenna": 7089,
  " begged": 7090,
  " jewels": 7091,
  " matched": 7092,
  "ities": 7093,
  " activ": 7094,
  " activities": 7095,
  " escaped": 7096,
  "oed": 7097,
  " mooed": 7098,
  ".'": 7099,
  ".'\"": 7100,
  " gran": 7101,
  " granted": 7102,
  " scaring": 7103,
  " hurried": 7104,
  " hurriedly": 7105,
  " slim": 7106,
  " slimy": 7107,
  " repeated": 7108,
  " repeatedly": 7109,
  " Moon": 7110,
  "ped": 7111,
  " stomped": 7112,
  "ishes": 7113,
  " radishes": 7114,
  " frosting": 7115,
  " gained": 7116,
  " Frank": 7117,
  " Frankie": 7118,
  "Eventually": 7119,
  " Someone": 7120,
  "pper": 7121,
  " Pepper": 7122,
  " sparkle": 7123,
  " lim": 7124,
  " limes": 7125,
  "inned": 7126,
  " grinned": 7127,
  " invest": 7128,
  " investig": 7129,
  " investigate": 7130,
  "ady": 7131,
  " steady": 7132,
  "ester": 7133,
  "esterday": 7134,
  " yesterday": 7135,
  " Tw": 7136,
  " Two": 7137,
  "ogo": 7138,
  " Gogo": 7139,
  " Jenna": 7140,
  "isdom": 7141,
  " Wisdom": 7142,
  " Bop": 7143,
  "Ollie": 7144,
  " ga": 7145,
  " gaze": 7146,
  " east": 7147,
  "xc": 7148,
  "Exc": 7149,
  "Excuse": 7150,
  " lin": 7151,
  " lines": 7152,
  " First": 7153,
  " Firstly": 7154,
  " panc": 7155,
  " pancakes": 7156,
  "please": 7157,
  " trad": 7158,
  " traded": 7159,
  "Emily": 7160,
  " Josh": 7161,
  " Joshu": 7162,
  " Joshua": 7163,
  " beard": 7164,
  " beards": 7165,
  "ales": 7166,
  " scales": 7167,
  "Sophie": 7168,
  "ork": 7169,
  "work": 7170,
  " homework": 7171,
  " forgi": 7172,
  " forgiving": 7173,
  "Ducky": 7174,
  " paints": 7175,
  "lier": 7176,
  " earlier": 7177,
  " contain": 7178,
  " container": 7179,
  "ides": 7180,
  " sides": 7181,
  " teasing": 7182,
  " lied": 7183,
  " inch": 7184,
  " inchw": 7185,
  " inchworm": 7186,
  "ctly": 7187,
  "actly": 7188,
  " exactly": 7189,
  " monsters": 7190,
  "wh": 7191,
  "what": 7192,
  " spike": 7193,
  " kindly": 7194,
  " answers": 7195,
  " hardly": 7196,
  " wonders": 7197,
  " item": 7198,
  " items": 7199,
  " Boo": 7200,
  "True": 7201,
  " pride": 7202,
  " awe": 7203,
  " kites": 7204,
  " sire": 7205,
  " siren": 7206,
  " sirens": 7207,
  " roaring": 7208,
  " loving": 7209,
  " lovingly": 7210,
  " traveled": 7211,
  "rist": 7212,
  " wrist": 7213,
  " wrists": 7214,
  "ues": 7215,
  " clues": 7216,
  "nies": 7217,
  " pennies": 7218,
  " hissed": 7219,
  " touching": 7220,
  " Being": 7221,
  "oot": 7222,
  " Hoot": 7223,
  " struck": 7224,
  "osed": 7225,
  " supposed": 7226,
  " acting": 7227,
  " lap": 7228,
  " lapt": 7229,
  " laptop": 7230,
  " eff": 7231,
  " effort": 7232,
  " efforts": 7233,
  " rule": 7234,
  "Watch": 7235,
  " excite": 7236,
  "osity": 7237,
  "uri": 7238,
  "uriosity": 7239,
  " curiosity": 7240,
  " swims": 7241,
  " swimsu": 7242,
  " swimsuit": 7243,
  " swimsuits": 7244,
  " snea": 7245,
  " sneaked": 7246,
  " loose": 7247,
  "boo": 7248,
  " bam": 7249,
  " bamboo": 7250,
  " remembers": 7251,
  " owned": 7252,
  "Bird": 7253,
  "Birds": 7254,
  " sore": 7255
}